memory_initialization_radix=10;
memory_initialization_vector=
-46,58,-15,-82,34,44,-27,35,-15,-8,3,17,5,13,40,21,-62,-27,-60,33,59,37,-9,-1,-40,-14,-44,9,-127,-1,-40,14,
-4,-1,18,23,8,-28,20,9,-59,4,-34,8,31,27,-2,-96,-5,-14,-45,-4,-80,9,9,-56,-107,-24,39,41,-52,-48,15,-33,
21,39,-89,7,-5,24,-41,53,3,3,-30,-55,-22,32,-37,37,23,-29,-10,15,-65,24,8,-89,-15,-32,-76,21,-14,-53,14,1,
6,-52,17,29,50,53,62,-44,43,-2,-33,19,-108,-54,36,-4,-12,20,-64,0,-58,-57,29,-54,37,38,-92,11,-4,61,35,30,
-111,-31,-12,-51,-13,-16,32,45,32,-44,-55,7,-77,-15,15,35,7,28,-126,7,-1,6,36,-110,35,-23,-9,32,-6,17,-68,40,
19,-10,-68,17,4,-40,28,16,-12,15,25,-38,62,-35,-1,-8,17,46,-56,-58,-11,37,0,46,-36,32,-25,-46,-94,10,-70,3,
37,-40,-80,37,27,10,-51,24,-80,24,-33,3,29,32,-47,16,16,-15,-24,-8,-28,38,-81,24,-55,22,15,0,6,-23,-5,-1,
40,-89,1,7,-4,14,5,-8,28,23,-8,35,-95,11,-10,16,-13,-44,-12,41,12,33,-32,-104,31,37,-6,-66,-16,13,-118,23,
-2,27,22,38,-30,-78,16,-58,0,-31,-4,23,107,15,-33,7,-62,-73,56,-52,-12,57,9,-1,70,-18,22,-97,18,-83,-26,26,
0,8,19,-117,10,7,41,-8,36,-100,-35,38,-33,-67,-28,-1,-47,31,-18,12,22,7,-36,-42,2,-76,37,41,49,7,3,-48,
-23,10,40,4,32,-36,12,-44,-39,-21,18,29,-52,-73,4,-30,5,13,34,2,37,48,-18,-16,-115,0,13,36,-6,-18,20,36,
33,-8,11,1,14,-48,-51,7,28,49,0,21,-51,-37,25,36,-56,-13,-67,-41,-31,37,-113,29,21,-104,38,-22,1,2,-15,-30,
-12,28,15,56,-83,-6,-4,10,24,-19,-34,6,47,-8,56,-83,1,-114,32,-35,-122,1,-10,-55,56,-56,24,28,10,-39,18,-76,
19,20,-16,34,9,-23,10,-14,-19,-20,4,-16,15,-14,-47,57,15,10,20,-86,-52,23,-67,-10,-15,-41,47,41,-62,-59,-75,40,
7,-31,-7,68,-44,18,51,-37,-41,49,-75,-74,-12,-29,-40,-91,-55,39,33,-15,29,44,30,-86,28,-23,-39,-57,-60,19,-15,-11,
-88,48,110,46,39,-67,7,-2,-40,21,-46,26,27,65,-16,-36,-62,51,-32,-67,12,-56,22,10,-87,19,30,-48,3,28,-13,-46,
51,5,17,-28,-94,4,51,-54,3,-75,-10,17,23,32,-26,13,2,-38,20,-23,-5,-93,29,19,-32,2,-51,31,-35,-2,50,-64,
-41,-14,-48,-42,-29,-42,31,-51,17,2,29,-26,33,-62,26,-26,52,43,-42,-56,-34,-50,2,1,32,-39,6,-5,41,-4,-82,16,
19,-20,29,-31,-63,22,11,24,-17,24,-54,-12,23,30,28,-7,3,-65,-35,0,43,21,-23,-35,-49,-46,-25,65,16,35,-63,-62,
-13,-2,-10,-22,35,46,-4,-61,-54,-37,20,33,30,-44,-29,-51,54,-42,-85,-67,19,47,16,-41,-16,-22,31,-75,-22,19,-2,39,
-55,39,4,30,-56,4,13,28,-14,-128,-38,-55,24,19,-59,15,34,21,-5,-101,22,6,18,-18,10,-46,18,-56,-3,-90,-55,32,
25,-11,21,-92,11,26,-4,3,-108,26,-63,-68,24,4,21,-10,45,11,40,44,-72,32,49,-62,67,-12,-53,-43,-51,-18,-15,32,
-26,-6,12,12,29,28,20,-10,-2,28,-60,-12,123,30,18,-11,11,2,19,25,-65,26,13,-9,9,-66,43,-9,-25,30,-68,-71,
26,-32,-22,42,-86,49,16,-4,-44,-3,73,-85,40,-43,-105,22,-14,27,-74,34,-2,-29,27,-12,-12,43,-50,-114,5,-33,-47,6,
33,22,-5,-42,-97,-18,6,4,47,-40,-11,43,5,-12,45,-15,9,-18,15,-66,-71,28,-3,34,2,36,-12,3,28,-95,-39,-121,
-51,-3,32,28,-42,-21,-30,-49,18,-3,43,-41,-37,46,-16,-53,21,42,-93,3,17,-112,-40,-37,6,22,15,19,18,12,15,-22,
30,17,-18,-28,-65,24,-20,27,-26,-56,48,-27,-24,-31,-12,27,45,-96,-8,-52,18,26,1,-8,33,-65,33,-10,-14,-19,4,-5,
-4,13,-6,-17,24,-4,27,8,29,-68,-53,-30,-41,24,34,-20,-84,-25,8,15,22,9,-118,22,-5,31,-43,65,32,-6,24,4,
23,37,-56,-67,-62,13,32,6,-8,23,-61,0,31,-19,39,24,-70,-45,-41,24,54,32,26,-67,-61,31,7,-9,-45,8,23,-17,
13,16,-28,-38,3,-52,-36,16,-54,34,19,33,-82,-41,38,-25,-34,45,-13,37,-29,-91,13,-45,-62,-1,10,-32,38,13,18,20,
-80,17,-27,30,42,-15,-36,-17,25,-43,32,-40,36,-48,33,12,25,-26,9,-28,43,-86,50,13,32,-30,7,-11,-40,48,-39,41,
38,-30,22,-36,18,5,-16,-53,-7,-35,-1,-34,-6,-36,-27,-11,20,22,-41,24,2,-113,-1,-63,39,17,18,39,23,-13,-2,-12,
4,24,29,-34,29,-37,4,12,0,24,-52,33,2,-14,14,-50,5,-115,-60,20,44,36,40,31,-25,-67,31,-20,-87,30,-52,51,
20,17,-34,-19,24,-94,12,29,-69,31,-50,13,8,-26,46,-81,-57,-50,-52,-37,-29,-70,51,-2,39,-23,-4,26,4,-34,-6,-36,
11,-58,27,-14,42,25,-18,-86,-45,-5,30,-10,5,51,-33,-42,9,-87,-1,55,-60,-18,-109,-33,-48,-33,28,36,-120,-32,-9,42,
13,-75,-82,-74,-42,3,34,-74,-10,-19,-40,28,-3,-66,38,40,20,-36,-40,29,-28,13,-96,-33,22,-5,-85,-5,36,26,30,-13,
23,7,-72,-13,-74,15,10,49,-48,4,27,6,19,-29,28,10,26,-55,37,31,-40,-49,9,6,38,-111,19,-31,-56,-13,34,22,
15,22,-82,23,12,0,25,33,24,-67,-48,-43,-46,-54,-13,28,-54,-5,-90,34,10,-13,11,-33,33,22,18,-10,-50,33,-15,-17,
-94,-2,-58,44,-7,33,-43,-39,36,-50,-78,6,38,3,46,19,-9,-32,-80,17,-5,7,7,11,-68,-31,-43,18,25,28,-109,22,
17,20,-25,27,-4,16,20,-55,-40,28,-42,19,-47,-15,0,32,-65,21,15,8,29,-14,-12,-52,-32,-31,34,-68,2,17,23,36;

