memory_initialization_radix=10;
memory_initialization_vector=
14,61,-13,32,55,18,33,-10,35,22,19,23,21,26,58,-3,-21,-53,56,-40,48,8,-1,40,92,10,8,-27,-60,-40,24,-13,
20,-26,-55,-48,2,57,9,-9,3,-38,-25,23,5,-4,0,-2,21,5,2,17,32,27,35,-17,-53,22,56,-49,62,25,51,17,
11,-3,-24,5,54,-80,16,-20,-22,-32,8,16,27,-13,-41,5,7,-65,2,-2,13,14,2,4,71,1,49,-25,-12,8,16,-40,
24,-5,-26,-29,16,-20,-22,7,-16,35,-5,-67,-13,23,-49,24,8,21,43,11,-7,8,26,9,25,-23,55,-10,74,3,20,16,
8,41,1,47,25,-6,53,8,35,38,-22,-33,-2,33,10,47,-61,-19,-33,-36,17,7,-21,58,39,24,-47,-54,-42,-9,29,36,
8,-9,13,40,-42,-47,-8,0,8,21,-13,-39,-38,2,58,5,-25,-69,54,-41,-9,48,-4,-20,1,29,15,-16,-9,8,27,16,
-54,5,-20,-12,41,-61,2,-32,-11,-20,20,-4,20,26,-31,-52,-48,-33,73,-16,37,4,-6,-39,-24,-10,38,31,28,-21,-29,-14,
-62,6,-30,-38,12,8,72,2,-24,6,25,9,-92,-28,-91,72,55,76,29,41,-18,33,30,-2,-10,6,1,68,21,-49,-19,2,
52,-5,-11,48,32,-2,9,62,-38,64,-33,-41,5,14,-58,-35,-38,-11,22,-13,61,-23,-9,-14,-56,-45,-78,-42,-61,-17,11,27,
24,11,44,55,3,-54,-28,68,-6,28,-26,61,-36,26,-43,1,27,35,-55,51,-45,-41,-9,-26,-18,40,33,16,-29,-29,-2,-27,
32,-38,-3,66,67,14,-60,-60,-6,-73,-15,-11,7,-26,11,13,-16,-99,-6,-6,-28,-40,-10,-54,-27,74,63,-23,41,-43,29,-49,
13,16,-4,88,-19,23,-4,17,-3,6,-17,0,-61,-29,5,-18,-24,48,9,-20,31,42,-12,0,-19,-59,-15,17,-42,2,-69,-24,
28,-2,-43,-29,-13,15,16,10,-36,18,1,-42,-67,20,6,57,30,32,-17,38,-31,6,-5,-19,-11,39,71,3,33,-4,-8,-1,
26,28,-11,10,-4,-44,-8,-1,-40,33,-9,-4,-5,35,8,25,36,-2,23,-9,-39,4,-18,-15,-12,-6,-14,37,-27,7,-12,40,
-28,47,4,44,-1,-29,10,19,-14,24,58,-44,10,20,21,-53,-18,57,43,5,16,-1,14,-16,2,-14,-48,-15,14,10,-10,-6,
-24,10,22,18,-39,35,-41,-20,22,-67,-13,9,-34,-31,23,18,-36,0,15,-3,-5,-33,-13,-51,17,-2,-9,-24,-15,-6,-5,21,
30,3,51,1,-6,-14,62,10,-29,16,10,-30,14,18,26,59,6,-31,20,28,66,50,-28,40,-30,3,13,42,5,-69,51,19,
-26,31,34,-26,38,-54,87,-17,-7,6,14,32,-36,17,9,21,23,23,-19,20,11,63,-17,-61,-31,3,27,54,6,-59,-19,16,
24,3,-69,28,44,-26,-18,-6,15,0,-35,23,13,-30,-61,-2,-35,31,55,26,0,-56,3,56,38,23,-4,58,16,11,-2,13,
-47,-19,-2,-21,30,-28,-21,23,22,52,55,-72,-30,-42,55,-36,-2,24,24,11,-27,-29,-4,-4,-4,-33,15,40,61,36,26,24,
-5,15,-14,29,53,44,40,-32,-30,16,18,-6,-35,5,58,-18,24,-35,-16,-13,14,22,4,14,-14,-44,-1,-37,-56,-13,5,-14,
11,33,-65,-15,-11,-44,-22,8,4,-15,24,0,29,-17,-21,-17,3,-15,-41,-26,9,2,2,6,9,9,17,-46,40,24,-26,-20,
24,-42,-30,17,27,-11,1,-30,9,-44,16,40,33,-11,-12,13,10,-42,-7,-5,6,11,-22,0,22,-5,55,-10,7,-1,-33,-35,
44,-38,9,5,-23,10,-28,4,0,-17,-34,-46,-12,-11,20,-7,-47,23,0,-22,29,-26,23,12,-13,-26,29,-37,-11,-10,1,-9,
-31,-16,-49,-22,-12,27,0,-37,7,18,14,20,-97,3,27,-11,27,-29,-22,21,12,-8,21,-3,19,-5,-10,0,-2,52,22,4,
16,14,-20,-24,26,3,-28,13,38,28,-7,-13,40,34,20,-33,30,-24,18,-1,-6,9,-8,5,-3,12,28,-30,-19,26,43,25,
-1,11,-12,-4,3,-12,38,-26,0,18,18,13,-18,0,19,-19,13,8,-1,1,2,44,-3,8,-15,-13,1,-55,-5,8,-25,28,
-15,13,14,-4,-6,-7,-21,-7,18,-96,3,8,25,39,-14,-1,-11,0,19,21,-11,-4,-9,22,-1,-17,29,-37,-13,-4,-13,36,
-9,-16,27,-37,-32,-52,-52,52,19,-2,-13,-20,21,25,-35,-12,-11,12,3,-9,-38,7,2,-19,-28,-47,7,-42,14,-2,-30,-8,
-8,-3,-15,24,44,-49,-8,32,-28,34,-9,-2,-59,-89,-34,-3,-39,27,-15,0,30,-30,7,27,5,-21,-2,37,2,-33,-44,-18,
40,-1,2,10,15,74,2,45,39,24,14,0,1,25,28,36,2,39,11,-5,-26,4,3,-26,-24,20,-26,33,-2,-83,-24,36,
-24,8,10,17,-15,8,8,43,58,18,15,42,6,-17,-5,-7,36,-6,-52,-22,9,21,-52,23,28,12,-20,14,-44,22,-6,-29,
73,14,26,40,18,-56,21,9,14,60,-102,4,106,52,-33,51,-18,-20,30,63,37,29,-46,27,-31,48,49,-87,-26,9,2,8,
-50,-55,68,6,46,-3,104,-43,-62,38,-16,-16,-31,0,57,-41,0,9,53,-58,18,45,-8,-82,-50,-9,10,44,-37,-79,-38,-40,
55,16,-20,1,21,29,-24,15,25,-38,-30,68,12,18,-59,29,-61,14,35,-55,-54,-73,-5,-21,-17,44,-6,23,73,98,18,-35,
-30,-78,-55,-32,4,-10,14,17,8,65,0,34,-83,-71,-44,34,43,66,-6,-13,-76,-26,-37,-25,-59,-34,-29,38,-26,7,-10,-49,
-65,-15,-55,-38,-18,11,3,29,-19,14,11,-45,-80,-4,-50,-11,57,-12,2,27,-28,44,41,-25,-13,26,-7,5,-49,1,9,9,
-12,31,-50,-12,36,-42,2,8,-34,35,-14,12,-30,-41,-15,-14,13,33,-20,-22,-16,-79,-50,-25,-43,-60,-18,-11,31,6,-7,37,
36,22,-17,47,34,65,18,-2,3,-6,55,-1,54,20,-2,21,-22,22,-7,14,-35,20,11,-22,28,-3,-49,20,-6,9,-7,60,
-9,-75,-59,-10,-25,36,3,6,10,-70,9,-65,-8,-53,41,27,13,0,13,-7,-15,26,-15,-68,4,17,-8,-37,19,69,31,22,
2,-14,20,-10,-22,3,8,-39,41,-11,-2,33,-4,-21,-30,3,19,13,5,-37,30,28,-5,-18,-9,22,-39,45,59,5,15,22,
-9,38,18,-30,-26,37,9,2,34,12,10,-40,-2,3,15,25,25,-1,-18,14,8,26,3,7,28,-3,-7,-12,-38,-20,-5,20,
2,-7,35,9,38,15,-11,8,-17,-10,9,-5,-15,-7,-17,-12,-28,25,39,9,17,28,8,40,20,-21,-4,-6,11,32,11,38,
-31,20,-16,-3,2,5,27,7,5,-18,24,5,33,-3,38,16,40,-10,44,2,-15,31,-8,-26,35,18,44,4,14,-2,2,32,
16,37,13,22,32,-2,49,-1,-34,-23,21,-53,31,-27,34,45,7,17,22,-28,2,33,12,53,16,9,42,48,-18,-48,37,13,
12,-18,26,14,-6,-57,19,-92,-16,-19,-9,20,-48,-5,-45,-8,28,25,-34,0,24,42,-15,-68,-28,-42,-8,15,-18,-18,-6,39,
2,-19,-69,17,28,-19,-39,32,-3,-28,-77,-40,-2,4,-78,-27,-46,23,-16,33,-12,-62,-18,18,80,40,3,-14,-39,21,14,-35,
-12,-5,-67,-21,14,-65,-28,-20,20,33,-9,-20,-48,-41,-4,54,-91,6,12,12,-7,-40,9,-2,11,24,21,35,71,16,6,21,
-26,7,28,6,-7,12,-7,-7,-6,14,55,14,-102,-19,0,1,15,6,-57,-15,-10,-31,12,-10,-15,-12,55,-9,49,-8,0,5,
11,-8,-14,3,9,-29,-30,8,14,17,-19,9,15,5,10,9,27,35,3,18,-18,21,11,7,39,36,21,-31,-51,46,12,27,
-29,-18,-2,28,21,-2,26,-28,-24,23,-14,-21,-19,14,-27,-12,3,12,-2,-5,15,-9,0,29,10,-1,21,-23,-1,-40,-5,26,
-3,14,-45,-23,-7,7,10,-13,-7,-64,1,50,24,58,25,14,9,-16,27,16,26,9,5,19,7,-4,28,14,6,4,-31,31,
33,27,-57,12,57,9,-10,-9,32,10,-14,20,7,42,23,0,5,-20,3,-14,28,16,12,-24,36,-3,42,22,-38,36,-10,0,
-14,-17,0,-54,-42,48,-25,25,-9,-22,-27,39,-22,63,18,-74,5,6,16,-8,25,-15,-32,14,-37,3,20,-5,24,-29,1,-19,
24,21,-30,-30,43,-3,-15,46,26,-49,18,37,25,17,-55,24,22,11,21,-31,10,-4,-9,-18,17,17,-18,-18,26,45,-41,-18,
58,-39,-45,-11,-11,26,28,3,47,35,3,-92,26,-24,1,-7,18,27,-9,-32,38,13,1,-74,40,-7,-5,-49,-10,8,63,-1,
7,19,-63,-2,-3,6,18,55,-51,-13,49,-39,-32,7,-5,-34,6,-14,-32,17,-15,4,11,-23,-1,11,49,15,-6,-27,12,3,
32,28,-9,-50,-6,-13,11,-18,25,31,-20,31,31,12,1,23,-6,-28,-4,2,-14,-44,6,16,-7,-21,8,-4,-13,3,38,39,
-3,23,1,39,34,-29,18,8,-8,15,23,-1,59,4,-14,24,-1,42,-32,-2,-12,7,-16,13,33,15,11,-20,17,-3,6,21,
12,-12,18,19,0,60,-9,-12,-14,-69,-10,-3,19,1,14,20,-30,36,37,14,11,25,35,2,7,5,30,15,1,26,-13,53,
0,-26,1,-9,-35,11,-8,-28,21,3,-67,23,14,-26,-8,-6,-7,-6,8,35,-24,20,-15,7,36,56,-10,-53,33,-26,14,-3,
2,-3,-1,10,3,55,-13,33,28,2,0,2,19,-4,24,24,16,-24,6,-34,-13,-8,-64,5,29,16,25,17,-11,16,-15,-8,
-3,14,12,2,-10,0,23,5,36,33,-57,24,-17,11,-9,15,25,-1,15,17,21,25,-8,4,-13,-19,23,-14,-2,10,-32,6,
-28,-12,-18,13,7,-39,19,18,-62,-4,6,-11,16,34,-33,0,-3,-8,-29,34,-11,-21,-5,-71,-5,12,-16,-6,-13,8,-12,-26,
43,-3,-53,20,37,-73,-44,13,0,-5,44,-27,-26,5,23,-46,-45,16,7,5,24,-40,-3,-34,-45,-78,-35,-31,-6,39,-21,33,
42,13,-50,24,45,8,43,15,-34,-17,-8,63,-32,13,-14,-23,-4,52,-42,2,19,-47,18,-13,-19,-14,-23,38,0,6,-18,-68,
47,33,14,21,27,-16,-68,5,37,-68,7,-2,10,-19,0,45,25,-47,1,-19,-37,-11,-20,-36,-12,91,24,15,34,-72,-51,-9,
23,61,0,59,-4,19,41,5,52,-22,-29,26,-28,-29,-1,-46,32,4,-6,-90,51,51,-19,-2,-15,-100,36,-46,-24,10,13,-23,
39,-5,-2,-4,16,-7,54,-31,-61,-27,56,15,-25,-11,-2,-28,-44,65,-24,37,36,-53,18,-37,-29,-63,27,46,1,-44,11,72,
32,20,8,-26,-29,-48,2,44,6,38,-10,35,-23,34,-56,8,-11,41,-92,120,25,-39,18,5,3,31,-47,2,-20,0,33,20,
10,2,0,42,25,-10,-43,-5,28,-82,7,-34,39,-61,27,-10,11,-3,-31,-13,33,-32,10,73,27,52,29,8,-25,-9,23,-48,
17,26,-7,53,-10,56,8,20,39,-49,9,-35,-18,35,17,7,-60,9,10,-42,50,13,88,-27,-49,-66,26,-36,14,10,-35,41,
-81,-22,-42,-4,-15,4,9,4,-26,-21,-1,-9,22,-17,16,-59,-27,11,-14,7,23,-9,24,-4,17,-34,-10,22,36,10,21,36,
19,-3,-51,-9,-28,6,13,28,11,-21,-20,9,-10,-36,6,12,-48,28,-30,17,-7,23,-4,47,-27,0,6,-19,-52,31,-22,-28,
-16,8,34,11,31,28,-15,-16,-8,-24,31,-8,-70,21,7,17,42,9,13,8,26,31,-14,-35,28,19,7,4,0,-59,-49,12,
5,36,27,13,-21,-26,5,4,-6,5,31,0,-1,-12,-32,-14,-22,-15,25,-58,54,12,23,-8,41,-5,32,-29,18,-10,6,-2,
-38,-4,-2,-23,-6,32,0,-19,17,-31,-37,44,0,-31,2,33,-12,7,3,10,-50,35,-16,0,42,55,-34,-42,37,-5,5,-13,
-23,8,10,5,7,48,22,13,17,-18,5,-16,26,-25,13,14,17,-20,36,-20,-22,28,-3,36,33,15,21,24,-19,30,18,-8,
-23,60,29,-31,-20,3,45,22,3,34,-66,4,5,27,-34,-59,16,44,17,-9,-23,45,-17,-39,0,-20,-33,9,20,-29,-17,12,
-26,-19,3,-87,5,-34,18,23,-57,-2,38,13,23,15,-27,-11,44,-49,12,17,0,4,-20,13,14,19,7,12,-2,-32,25,-4,
-12,32,-34,-25,25,36,8,16,31,7,-23,9,16,-5,18,11,-37,5,41,1,-7,10,6,29,18,-24,-26,-45,-11,-33,24,4,
38,2,-48,43,-19,34,4,-11,41,-4,-29,35,8,-44,9,20,-9,56,-3,-52,-35,2,-16,-2,-12,42,37,-17,16,30,-15,-32,
8,-59,21,-4,-11,-10,-16,-8,7,-80,-21,19,34,-4,10,8,30,-81,-13,17,9,2,2,4,-2,36,37,-14,42,-24,61,-45,
2,-14,-21,40,18,3,-14,-5,5,12,30,-10,-20,-26,-8,-44,-13,-16,11,22,-14,-25,1,11,-11,2,14,-1,15,-4,4,0,
14,-27,-20,-2,-51,3,13,17,-40,5,-31,-49,-18,-18,-23,-24,-18,39,-4,-10,3,-15,-56,7,-8,-20,-35,-32,-43,-23,15,-35,
-6,4,37,6,6,22,-57,43,13,19,-20,-6,-18,11,22,16,15,5,-21,12,-57,-58,-22,-10,12,26,12,-8,-55,-16,-45,-14,
58,33,-22,5,15,-10,16,5,15,-9,-11,49,16,-33,22,-5,-3,-8,-2,-6,31,8,-23,31,-11,12,1,31,46,29,32,-17,
-1,10,-17,29,-40,39,16,8,-81,-34,45,-10,1,19,25,-5,6,17,-7,-10,27,16,16,32,-14,-46,14,-6,20,-15,24,-12,
-18,3,-29,-23,28,26,-21,14,10,1,14,2,-14,-7,-5,17,27,-23,-24,39,6,-11,8,-22,1,-8,40,8,-8,-12,-25,10,
5,18,-5,12,7,6,4,-9,-7,6,-4,45,-9,-7,44,-9,17,12,23,-9,6,-6,21,14,14,18,3,1,-29,-8,-26,21,
-8,-14,24,-5,-6,24,15,-31,-1,-12,-12,-12,-25,-2,-2,45,10,36,12,-8,-1,21,-8,11,50,-9,4,21,-17,12,-28,22,
10,-13,-45,-10,-38,-24,7,12,25,28,-11,3,28,13,17,20,4,12,-2,-17,23,-17,-5,-33,28,16,28,-23,9,17,14,-14,
11,-11,12,-13,-38,0,25,14,27,-16,-31,-15,-20,9,24,30,3,30,3,-10,-21,-3,17,22,-17,25,-3,-8,53,23,-4,-36,
-7,-33,2,14,-4,16,-25,-5,30,6,-29,-31,31,-67,9,12,-6,41,27,18,-8,41,-12,27,-5,36,5,16,-32,18,32,1,
-40,9,-41,0,-44,17,16,20,22,-5,-103,29,-64,-39,16,-13,-10,-32,-11,-2,-5,2,-14,-15,-3,-19,-4,-6,-8,40,34,-16,
-48,15,11,4,-26,-53,23,27,-42,-8,52,-13,25,14,-1,-3,7,-9,-31,-6,-23,-34,12,-8,-3,-49,-5,30,-5,6,-8,-23,
3,21,26,-21,-1,29,-19,3,-15,1,-55,10,23,-5,13,-10,37,-82,-3,-24,3,46,12,-10,3,38,39,-7,-32,25,35,-6,
-45,25,16,-10,-7,3,-2,-16,1,18,-15,-4,-43,-57,4,-42,-24,39,14,-23,-35,2,-51,24,30,-30,17,8,5,10,11,21,
-5,-34,15,-39,-3,60,38,-4,-12,14,20,47,36,27,-5,14,6,39,7,-20,-42,15,2,-10,-9,-31,-15,17,6,-8,-17,23,
14,-79,-39,-44,-30,29,7,-19,1,38,-46,-44,15,-64,33,-44,3,14,-9,24,-15,38,-18,-30,26,7,-15,7,-10,20,8,-1,
35,-19,13,15,5,2,28,-7,8,-33,-6,1,71,14,-58,-39,-14,40,-5,-28,17,-12,15,-6,-14,-17,-61,27,16,11,19,22,
-15,-6,0,-48,3,11,10,19,26,-15,7,-10,-19,-5,8,6,9,1,-44,32,2,4,-2,19,12,-5,-18,24,-40,-32,35,24,
2,-13,-13,-28,33,11,-5,-9,8,-28,-17,-3,-14,-6,19,-2,1,-38,18,-26,18,-5,1,2,-11,-11,-2,37,6,-30,62,6,
7,50,39,16,-26,12,20,39,22,18,45,30,8,-40,-15,-3,60,-20,24,-12,8,45,-16,13,13,-14,12,20,31,-15,-5,-8,
-66,-3,24,-46,-32,59,-39,35,-29,-21,2,39,-71,-17,-6,-57,64,2,17,-20,-7,-26,50,-53,4,-57,-9,43,-53,11,-11,-1,
71,8,36,22,35,-6,-81,-11,-42,45,-35,92,34,22,-62,-5,54,68,-16,14,-28,-109,-41,55,13,-59,-19,-22,29,51,30,31,
18,-24,69,61,-4,50,12,38,-30,-8,-13,-48,2,1,16,9,42,0,-95,38,-17,3,-14,-25,5,39,-46,-61,-14,-36,-75,-5,
49,6,20,47,2,31,-30,-79,24,-51,-19,-69,70,-15,70,-27,-46,-45,27,35,54,28,-23,-37,37,52,-8,-17,-29,104,-11,13,
25,-11,-17,-14,-11,-63,-45,46,41,-28,-7,-38,-7,13,45,-44,-21,56,15,76,-35,15,-38,37,-82,-6,-21,-11,5,-19,-32,-20,
9,-50,-1,9,75,-20,48,-11,-20,18,-3,45,32,47,12,42,48,-30,-25,-24,4,-16,51,-32,-44,29,-46,35,-21,-43,-106,-55,
103,54,24,6,-67,-49,-25,29,69,-18,-23,-5,-53,-31,38,13,5,29,-36,48,29,19,14,17,-15,64,-5,-20,20,1,-11,-27,
-26,8,23,14,-15,-1,-12,16,-59,20,46,-15,1,11,16,-108,-1,21,-74,-54,-5,-1,33,14,-62,-44,-29,23,-36,5,19,-25,
6,-10,11,0,-5,-38,22,12,11,-8,17,31,30,31,25,10,45,27,-10,-60,78,45,-2,46,2,43,3,63,10,0,46,4,
-12,29,29,-7,-13,-4,17,-20,16,-27,-18,-12,10,-46,1,41,-23,34,-12,-14,66,30,5,-9,9,-7,-7,-16,-41,-31,-28,9,
-22,-20,-41,-4,21,30,20,38,15,-46,-65,2,-15,-30,-14,-41,-40,-17,87,22,27,-27,-8,35,14,45,-8,8,-38,68,57,39,
-4,-21,7,-26,-15,5,43,-5,9,27,55,41,20,-2,21,3,9,22,36,16,-9,13,15,-7,-30,-22,16,22,36,-28,-29,11,
17,43,56,3,-2,10,57,50,4,12,27,-25,-15,33,54,84,17,18,-35,-34,-24,36,22,48,-9,-6,88,30,6,41,0,18,
3,-45,-1,44,20,-61,10,-50,-29,27,-20,18,-22,13,-40,34,29,-21,-8,-43,8,49,17,-41,-25,-33,3,-10,21,6,4,21,
-4,-26,6,-7,-41,-8,-2,36,-4,19,-43,-35,-82,19,46,-17,-20,44,1,38,-35,-20,2,-29,14,-16,-21,-2,-34,-12,-19,19,
-17,37,31,13,-22,-72,-33,-15,11,29,12,37,-15,4,20,-6,-4,33,8,36,-30,-38,-2,24,-7,40,-43,12,-31,38,-35,-1,
-68,15,-19,-8,-26,2,30,-44,3,-22,16,16,-9,-15,25,-6,15,-15,-10,1,0,14,31,13,4,5,26,46,26,17,-13,37,
25,27,0,-45,-3,53,25,21,40,-13,-10,-33,18,-26,3,22,-44,18,3,5,34,28,13,32,13,36,-2,29,12,40,11,-1,
17,32,29,-25,14,23,23,-16,14,-34,-1,29,4,-34,-5,-12,47,26,13,31,-3,35,-14,21,25,7,-14,14,-35,-23,-30,3,
18,11,41,-22,12,-6,8,7,39,13,-16,30,-3,38,36,-40,10,-34,5,9,13,-25,18,-21,26,-13,-14,-33,7,-24,20,17,
88,32,10,47,55,-22,52,21,-34,-25,80,-58,-29,35,-31,6,7,29,-48,-44,54,8,32,22,-37,-35,9,53,23,-11,-31,18,
13,18,13,-11,9,-64,38,-39,-51,12,-3,49,-3,61,-38,27,43,17,-55,-11,35,42,-19,-38,-8,-50,-54,0,-11,-87,25,54,
-17,-25,-41,66,11,-32,-44,13,-50,-65,-26,-46,1,4,-34,-55,-39,18,23,18,18,-61,-15,27,13,41,-20,-71,-35,11,26,-43,
48,31,-35,20,27,-60,0,-42,52,28,-13,21,-27,-53,50,27,-22,24,40,-37,-27,27,5,-3,-35,-37,47,7,33,22,-61,17,
17,-3,1,27,11,28,-6,2,6,46,-33,18,-36,-14,-27,2,13,1,20,12,-18,3,14,-16,4,-2,-14,-52,-5,38,-40,-6,
22,25,-16,31,-10,-30,-61,17,25,39,-9,31,8,-22,2,-7,18,-23,-9,24,-22,-7,23,21,32,19,31,-22,5,-5,21,4,
19,1,13,0,-9,9,12,-6,17,34,8,31,27,3,40,18,16,-7,-4,-12,11,8,-8,-23,-12,-28,4,-34,7,9,-15,31,
18,6,10,34,-29,26,-2,3,-28,-18,-20,6,-4,-17,14,9,-46,-13,-11,3,17,-11,8,53,-34,-2,2,7,-23,12,-30,-15,
50,43,60,7,11,-62,-17,23,-4,-10,24,24,74,-39,38,31,-5,-45,67,-39,5,37,37,6,-22,0,4,44,-12,-3,3,-39,
-1,-63,-4,26,43,-23,8,-70,-100,13,-9,36,-19,64,-32,-11,10,20,-27,4,3,24,-28,-48,-52,-47,7,-8,35,-12,-11,15,
40,-41,-30,26,10,58,-16,15,-27,-15,6,2,-6,17,-48,35,-40,4,-6,2,-73,-81,-18,-48,-10,50,-14,-31,7,19,5,-7,
12,-10,-22,24,10,0,-37,9,20,36,-52,36,-32,-56,23,-23,-49,11,-20,-3,-18,-45,-3,19,-15,53,-3,-31,9,43,-18,3,
-5,47,-14,22,-2,11,25,30,58,6,25,4,37,50,5,40,-14,-34,46,-22,10,9,14,26,72,23,-75,-17,0,-35,1,36,
-22,-11,-3,32,7,26,9,-10,-5,-28,5,19,32,43,-9,-36,28,-31,44,-24,10,26,-8,-14,0,-15,41,1,12,-13,51,-13,
23,45,5,-11,-6,-35,-6,-15,7,-7,-54,-13,-27,19,-87,6,0,-19,18,9,-13,10,-16,-71,15,-11,-11,-9,0,10,-31,-19,
8,-3,-58,-25,14,-38,27,13,-2,39,23,54,10,7,-69,22,48,10,8,12,-3,13,29,-54,20,32,-41,37,10,-8,-13,-20,
-40,28,23,-5,-10,25,-20,19,2,-42,24,7,-23,-3,17,25,29,-31,36,-25,14,37,37,-3,-3,13,44,-1,4,-8,-3,0,
-52,16,-9,0,30,-35,6,-74,-35,19,-9,13,-20,25,-15,-11,59,-5,0,-28,-7,7,-46,-40,-25,-63,-7,-24,-7,-1,26,13,
1,-16,-28,-1,10,-43,10,8,-19,40,-54,-15,24,18,-84,4,-30,13,-17,4,-32,-82,-19,-25,33,2,-50,16,-24,-8,-47,32,
13,-6,8,-5,-5,36,-14,-1,1,42,-14,11,13,-16,35,7,-60,-15,7,26,11,-32,-15,-72,-13,1,29,4,41,52,-16,17,
8,1,49,27,12,-32,8,-73,53,-22,0,32,16,12,11,-10,-6,-34,22,-3,36,-10,-4,4,-3,-54,-29,2,13,13,12,48,
7,1,47,10,-43,-17,5,1,-37,-30,10,0,-3,-40,-2,24,-31,-7,-10,12,62,28,28,23,8,-11,-35,35,-6,-8,21,-2,
20,-19,28,-60,35,37,-40,-4,14,-25,20,-6,-31,-17,7,35,-6,-16,25,20,-13,-12,-12,-13,-33,-2,-15,39,-33,-47,4,-11,
9,47,24,18,10,-27,29,40,57,-3,-10,15,47,27,10,-18,32,7,3,-26,14,34,14,5,19,-18,29,28,21,-53,-7,-37,
-24,-5,-2,-15,-46,6,-26,0,18,20,7,17,-12,-55,13,32,-5,39,7,12,-14,5,-31,23,-20,63,8,-37,-15,-16,24,-83,
-21,25,12,-43,14,19,-5,15,28,27,-11,-22,44,-7,30,40,-39,1,27,13,-30,-12,-3,-3,30,21,5,-15,-35,1,16,26,
-22,18,-15,-5,1,17,35,20,18,33,-35,8,40,-17,-5,-21,8,-14,12,32,16,-11,-9,17,34,-28,3,18,-20,10,47,5,
-62,-7,6,-10,18,68,31,23,-60,3,66,40,-10,24,10,13,26,-30,-2,37,-9,-24,-3,16,-28,-18,26,12,17,-18,-12,22,
22,26,-31,35,39,6,58,-32,41,-36,-17,-40,16,41,-5,31,1,52,27,4,22,-15,31,58,50,33,-40,-33,-11,19,38,27,
20,-21,-53,-21,-43,31,5,-13,32,-43,9,-26,45,-24,34,11,-46,-14,-6,-12,19,27,10,0,-14,42,8,-32,-3,30,19,-18,
-54,15,-29,4,-2,-62,-8,-27,19,-26,-63,16,-34,-12,38,-6,15,-10,39,2,36,44,-2,-7,47,-4,38,10,-16,25,47,-9,
-12,53,26,-6,-19,-29,23,4,17,30,45,-10,-25,-7,-53,24,32,1,17,14,-11,-23,45,-21,2,-5,-8,-8,-3,-19,0,31,
12,-16,0,-2,-3,19,0,20,39,-36,-54,8,23,-25,-3,28,4,-13,43,-6,-4,7,-7,11,15,10,-20,11,20,-83,6,-13,
-5,13,-3,-21,13,50,-6,6,17,-29,14,10,15,-55,-4,4,8,21,-5,16,5,13,-6,15,34,14,19,19,-45,26,-5,-14,
11,-46,-18,11,-8,-24,-30,-10,18,-12,-5,-18,-9,-35,-43,15,26,-23,2,10,35,38,-18,24,-16,-3,-22,12,11,28,3,0,
-4,-33,-22,-18,-3,-17,7,-1,-30,26,38,18,-10,1,-18,-6,-4,-32,-1,8,22,-8,-11,-32,8,-10,-12,-3,-7,-11,-2,15,
-8,1,13,9,-19,7,-1,-3,24,3,-103,-23,12,-18,6,-24,-5,-15,42,12,-5,18,-52,-18,0,-9,-111,-92,15,7,19,8,
3,-2,14,21,2,39,-11,27,29,0,-17,19,3,-2,-15,-7,-24,-14,-14,-41,-21,6,-36,24,-14,21,33,-1,17,19,-14,-5,
16,17,11,-29,-15,-3,14,-22,17,22,-38,31,3,-23,27,4,16,-56,2,1,33,-4,-12,-2,-30,5,18,0,15,-26,17,2,
-10,5,30,12,13,-14,18,14,-13,6,3,22,5,19,-45,-38,9,-17,-14,17,14,8,-1,-30,-9,-8,-18,28,15,-5,-5,-29,
-15,-4,16,5,-55,30,21,5,-31,91,-43,36,-19,18,-39,22,-27,-62,34,23,-40,-11,-18,-36,-2,22,3,-17,-19,3,-10,4,
-29,35,44,35,-13,15,-31,31,14,7,12,-13,-86,-1,46,-68,7,-19,10,-15,-57,-18,12,-47,29,50,50,-3,8,1,1,-10,
3,-19,4,8,29,-9,-10,-11,-7,53,-20,36,19,17,-12,-28,-1,-39,-17,-77,-10,18,3,21,2,-26,16,33,77,6,16,-18,
-76,-7,-59,22,-4,35,-13,33,-44,14,-50,-31,-27,-31,21,32,10,34,33,36,-28,10,-60,-17,18,15,22,31,-40,-9,-41,-3,
44,41,19,21,-18,-31,53,27,-96,39,-9,-59,10,-20,14,-8,-23,21,-42,8,-2,-14,21,44,-57,-6,-18,7,86,-47,21,-34,
32,-32,-9,13,4,118,38,-14,50,68,-7,64,-26,-31,-9,34,-18,29,-4,-41,0,10,44,5,-30,-3,17,-18,9,37,37,67,
-30,-64,26,63,-24,-6,-25,-32,-42,12,2,-48,19,-21,39,-27,5,-22,11,31,5,-18,1,50,55,32,35,-75,4,6,-2,-47,
-36,13,33,53,-9,37,-49,-62,-28,-42,-51,-14,-50,29,-9,33,-91,66,-2,93,-13,-32,29,17,-66,59,-13,45,-19,18,-88,29,
-32,-6,-80,4,-18,30,14,-8,21,7,67,-13,20,15,35,-18,-20,-27,3,6,19,29,-32,8,46,7,13,-5,-32,-54,36,48,
0,-9,-75,-11,-34,57,38,38,36,-12,-14,-15,13,-4,0,-42,-9,-18,10,16,7,0,20,14,-15,35,17,-29,-4,13,-30,-29,
21,21,-11,-11,23,-63,28,-38,18,-63,-43,63,5,-36,-15,1,43,-11,-5,-5,-25,13,3,-31,-4,2,22,-6,5,-29,-57,2,
42,-8,0,-1,10,15,13,37,-36,5,7,-92,17,-10,-33,-17,13,9,-26,-53,49,8,-4,15,12,-51,7,-40,62,-28,37,-19,
-16,-7,1,17,16,16,-17,-17,12,-64,-3,7,19,25,-15,-30,24,2,-29,-24,15,9,13,6,18,-12,-29,-9,18,11,-24,22,
-18,-1,9,-57,-24,16,9,19,-9,-25,-13,-51,10,-2,-24,-1,0,-19,-9,51,38,-25,7,48,23,15,1,38,-4,4,-15,-11,
14,35,2,-43,-5,-8,-3,31,51,16,-8,-15,-13,13,6,-37,24,37,48,-7,8,36,13,-14,-22,-38,-24,34,-7,-67,18,29,
35,54,1,-32,-28,13,48,19,77,28,13,-14,57,-36,-9,-29,74,-36,-44,-28,29,78,21,-8,-3,-18,31,14,28,-51,2,32,
-25,-36,-12,-32,12,-13,-86,1,29,-54,-4,-3,-29,-21,71,-55,-3,38,-27,21,-14,25,-25,15,-19,4,-12,19,3,-49,-22,19,
4,-8,-15,-32,19,3,-26,2,12,-16,2,10,79,28,-31,19,23,-39,-46,-29,-5,-36,-13,-4,-12,14,-22,14,-28,-5,-70,-60,
92,72,14,-5,-43,-63,18,48,56,-59,-31,21,-17,-99,3,-8,26,34,-25,12,39,36,3,8,-11,29,25,7,-39,16,31,2,
21,-9,11,17,-21,8,9,56,-17,-7,38,-25,43,22,-4,-100,-17,-49,-54,-59,31,17,30,4,-28,-19,1,-52,-21,2,19,-23,
8,-23,42,13,-5,-16,6,16,4,-56,-6,5,5,19,-69,25,44,8,25,-41,5,15,-14,-38,1,32,15,9,0,15,12,-21,
-91,48,43,-16,44,-28,39,-8,-22,-23,-6,-5,-59,26,23,12,6,46,24,-45,14,-35,-65,-27,25,-39,4,17,15,-16,-8,-16,
29,-66,-21,-21,-1,13,-5,52,7,24,2,-7,35,-14,-97,27,-57,37,14,27,-38,-49,-22,31,19,2,-49,47,-17,40,9,19,
3,-67,-66,-26,-32,4,-4,18,0,30,22,44,1,-24,47,-3,38,-11,23,36,-40,20,-15,-6,-47,21,19,46,22,4,-8,-12,
-51,1,-9,-13,7,-46,19,-50,-6,40,34,-35,0,16,-12,56,-4,39,-34,-9,-27,-68,36,-9,-11,-15,26,-15,77,75,-50,29,
57,-18,-26,70,-44,3,-67,-13,6,52,-28,-33,10,-63,-5,33,-62,-47,30,38,-29,32,11,39,23,5,-8,-32,-1,32,32,25,
-55,-7,35,31,-29,28,-32,-16,-21,5,4,-33,-22,23,43,12,-16,-39,-23,5,-28,26,-14,-27,8,11,-29,-39,-10,4,-54,-23,
-33,50,34,38,-16,45,-12,-62,-12,-23,11,2,10,29,-4,34,11,26,-24,6,14,-11,-18,26,-13,2,-55,-18,-48,-5,-18,-3,
17,1,-33,22,20,46,12,17,-61,34,23,-6,-72,5,33,3,-1,44,-15,2,14,-12,5,26,0,-18,34,21,-14,-2,-11,-5,
-20,1,5,-11,9,-6,-7,-28,-1,25,-32,21,-2,33,-38,-1,36,-3,3,-5,2,-24,-7,-20,-18,2,16,-37,19,22,30,34,
-11,10,-11,16,4,-91,18,23,-14,20,-17,-9,5,-21,-2,-65,5,15,4,4,5,-34,15,18,45,8,9,-68,-5,0,15,-44,
14,-4,-24,23,13,30,0,-19,15,-25,1,4,-23,25,8,32,-47,17,13,46,3,-23,52,-32,-20,7,9,-6,-1,27,1,31,
-40,40,-38,-10,-37,38,-34,62,-13,-9,-45,-10,2,-78,33,-30,31,-21,-12,29,-33,-4,-23,13,46,20,-57,-21,51,-75,6,-21,
5,17,-17,-12,14,23,4,-3,-15,18,13,39,25,-25,2,35,11,-27,0,-18,-59,-27,-17,-1,14,7,57,-45,-8,38,1,58,
-8,21,17,12,-1,-29,42,17,3,-1,41,28,18,12,-17,13,46,-16,-15,28,13,-2,-17,47,30,-9,-5,-34,8,-40,-52,13,
21,-49,28,22,3,45,-32,-25,-63,2,10,-18,13,26,-9,-12,-50,-27,18,30,-22,-32,-20,1,56,17,-4,-17,15,29,29,20,
12,57,-46,22,24,-40,5,15,-32,39,51,-48,53,49,5,-13,-28,-32,3,9,21,-38,-2,-4,-1,4,44,-14,-3,20,-65,30,
22,-26,-5,62,-14,-9,-4,-42,-40,31,-8,31,-25,-23,-6,-49,4,25,13,-36,16,18,-17,-24,7,-36,-7,-11,33,17,28,-12,
-16,-8,8,24,26,26,10,-28,-22,31,-6,0,-5,57,10,30,-41,12,-53,-20,-85,-27,-1,-44,11,23,-72,-26,33,-19,-20,-14,
-8,-8,9,21,-3,-13,-17,-39,16,-9,-51,14,0,-42,21,39,2,61,-1,-32,-29,-8,-47,8,27,28,-58,-4,-101,-7,-6,-31,
37,26,20,3,22,6,36,18,51,-9,-67,5,31,-26,16,25,8,5,34,9,17,53,3,21,39,31,-5,-33,-25,-56,10,-70,
-25,-13,34,-5,35,41,20,-24,-38,-29,-14,19,-29,1,20,-41,-16,20,-1,14,-8,-8,28,-55,-14,15,60,-13,-26,-43,5,-24,
23,5,-20,-4,-22,13,26,26,39,-10,-5,55,11,-2,-40,25,7,-2,-17,21,-25,-17,7,-32,20,24,6,-11,25,26,25,-25,
-5,-64,-33,-45,-6,-31,-22,39,-1,30,22,15,-15,-18,10,31,-27,25,1,8,-32,-38,14,-12,13,12,-21,40,21,21,28,-1,
29,-16,-4,-4,-3,15,-3,-37,3,15,10,-32,-30,-18,-19,-7,13,21,-36,14,-2,-5,16,2,43,17,14,30,-34,13,-24,20,
-20,-7,-7,-2,18,47,-3,-7,-44,0,-35,-35,21,61,-21,-31,39,-32,5,33,-16,-12,-5,8,-2,-21,-8,-16,3,-1,32,24,
25,25,-22,21,13,5,33,28,-10,28,1,23,-37,32,-55,-12,-16,63,-16,-9,-21,-5,7,-33,24,-2,-64,-25,-1,-1,-7,42,
15,1,-20,-18,-24,9,3,30,17,3,-12,-24,14,-20,24,31,28,-11,6,-24,-4,26,-17,-4,48,5,-20,-10,-15,-22,24,30,
-9,-9,-34,-17,-4,-46,6,31,2,4,-42,-28,29,7,-9,18,3,-46,-8,71,-10,5,-41,9,-27,38,22,-71,-31,-16,60,45,
-67,-4,-8,-30,-16,50,39,59,32,12,-15,-19,-42,-46,71,-88,-58,-10,80,-13,3,20,30,-30,17,8,-3,51,-1,-54,-79,-26,
36,34,7,-34,5,43,42,5,48,22,69,51,11,62,-19,-13,-44,53,56,-46,-1,13,-19,-17,-16,-34,20,59,54,-21,-9,35,
-59,-58,-33,-58,1,45,18,15,36,25,5,-22,-37,-60,19,-39,58,-10,-72,-13,-26,-18,3,12,35,-10,-14,-17,14,-19,75,5,
-67,-22,-25,-13,-22,-16,8,-37,-16,-13,60,12,-71,-2,-17,-30,-10,-5,-36,24,18,12,19,-27,-38,-58,18,21,41,-3,24,23,
37,34,-23,-61,-17,4,35,43,21,-12,6,-9,-31,-15,3,23,-40,37,-65,20,0,-37,-1,34,37,16,-34,36,-6,-23,-15,-10,
-2,-2,32,28,21,31,-11,-27,6,-41,23,-9,45,0,-6,-17,-28,-6,19,7,73,1,5,61,23,37,35,44,-11,-7,-38,13,
13,0,-39,23,-12,39,22,31,30,-61,-11,-2,37,48,29,-35,-8,-12,29,-56,37,-2,10,-29,26,-20,26,-40,22,-11,-5,13,
32,-7,-46,-12,15,22,-14,19,36,16,-19,56,11,-3,59,6,-47,37,8,-41,3,22,-7,48,13,19,30,19,16,-18,4,-80,
-17,20,-10,-7,-5,19,-45,-23,30,9,0,8,-20,23,-22,20,-14,-1,-3,-7,36,-9,14,-6,2,29,19,-34,-2,18,-8,-24,
-2,-1,-5,5,-21,-6,1,40,28,-13,31,4,35,-28,-13,-19,-7,-28,23,11,40,4,2,14,21,-14,0,12,-25,34,-5,-44,
-8,-19,-1,-10,-21,13,-1,-2,-15,40,42,-14,0,-6,-5,8,-21,27,23,16,2,-30,55,21,-17,6,47,13,14,17,13,-7,
-17,-62,-23,-22,-48,-65,-4,8,12,4,24,-71,-1,15,-10,8,-38,27,1,50,4,-15,-33,10,-86,-18,28,-45,-2,13,21,40,
26,-25,-22,-30,16,1,63,45,-4,-12,17,-1,63,-4,29,14,-48,9,37,28,-38,-80,49,5,-46,29,-48,48,4,-39,-72,-54,
69,56,33,31,-18,-13,-14,0,41,9,25,10,-26,-5,24,13,30,12,28,6,44,40,-11,-6,-43,37,29,28,33,-5,-86,-17,
-54,44,6,44,32,28,16,34,-9,23,34,32,-11,17,-14,-82,31,8,-61,-26,45,-32,23,36,-36,-54,3,-11,19,-37,22,-9,
17,-7,14,-61,-55,-4,-41,34,-8,10,-31,-14,-13,-36,-28,-14,16,14,-47,47,-51,-7,1,-6,-16,45,7,20,28,30,6,-30,
-6,-14,32,-13,33,8,-31,10,13,44,-11,7,43,29,40,12,-48,-15,38,-25,-44,-23,6,4,7,27,10,-7,-38,-4,-3,25,
6,30,42,22,9,14,-11,57,24,47,25,-31,-36,20,2,5,17,1,-17,16,36,15,-19,35,-11,-18,24,-10,39,29,16,15,
-19,36,-9,-5,-12,29,8,0,-56,37,7,-8,18,5,25,-36,30,-16,-4,26,1,12,7,32,21,22,-19,31,3,6,21,17,
37,-21,-55,-9,-11,19,34,10,27,-42,21,3,-19,-51,30,17,-3,14,4,20,19,5,-16,25,8,-23,1,-8,-63,-57,41,-59,
-27,-47,-19,-29,7,37,17,-10,14,-49,-25,-1,2,37,-8,-29,7,12,11,11,8,-19,32,4,-59,59,48,11,43,20,-73,-28,
74,27,-34,22,-32,-58,20,32,41,-41,-12,44,-18,-44,8,-4,41,-20,-1,7,16,57,-8,9,64,6,38,-1,21,29,46,-38,
-2,-5,-19,43,-13,-41,0,18,-8,-13,59,-18,-12,22,4,-12,-2,-21,7,-21,-4,-72,66,33,5,-13,3,-10,33,1,40,3,
-61,16,-67,30,-9,67,49,-47,-35,57,38,18,-42,-13,51,-22,14,-42,-42,-19,17,9,-5,34,68,29,11,-33,-37,7,25,-4,
-14,-14,-92,-3,-40,18,13,3,17,-56,-21,0,-20,-14,16,-73,27,7,25,27,18,17,-38,-32,-41,7,39,-85,11,44,42,-16,
-5,-19,-51,-16,-5,-36,38,-5,-12,4,-48,43,-8,-2,-50,-57,6,9,33,-59,-19,-2,1,-6,71,-10,29,-14,-18,25,-28,-2,
14,-2,-60,1,8,-21,0,3,-19,-35,0,8,-19,-12,-33,72,-26,-21,41,3,-3,-17,51,-2,40,16,-15,-20,60,-7,13,23,
-10,15,5,-25,19,29,-32,-15,-11,-4,-2,-2,-15,7,-5,-30,28,18,-20,11,-8,-21,11,6,21,5,12,-36,10,20,15,-1,
-2,-26,-23,-14,17,22,-22,-17,8,-9,8,-12,33,-4,2,16,-20,-60,13,9,10,30,-48,18,15,3,2,-4,-16,25,31,16,
22,6,23,-12,-19,-13,11,1,19,22,-1,21,-19,32,22,33,-8,31,-2,-12,15,10,-15,-5,-4,1,4,7,-28,13,-65,14,
22,-1,38,12,2,-4,10,3,37,0,-2,-6,15,6,11,6,8,12,22,-17,16,35,29,-16,31,6,-5,-26,11,17,18,14,
3,24,11,-2,1,27,-15,50,8,2,15,24,40,-21,62,-29,7,9,45,37,10,57,22,43,27,-9,21,-89,-6,-21,23,7,
0,-22,-4,-15,39,32,-8,-1,-5,-14,-23,67,80,8,12,26,-5,41,1,61,35,-18,-13,-27,-44,-1,53,-19,-5,20,-45,-46,
53,-33,-12,40,-29,-60,16,52,36,11,-4,36,-1,-54,-2,11,41,-22,-46,39,-14,6,-21,-53,61,44,37,-43,-16,-47,-25,-22,
-5,-43,6,31,-8,5,-13,19,-12,35,48,20,-8,5,-26,-19,-42,-4,-24,13,20,-55,62,2,2,16,-42,-14,27,52,8,-6,
-8,31,49,-15,34,-11,10,-51,4,12,-56,0,9,-17,4,5,21,-19,42,-20,15,-11,-12,-14,11,-41,-75,7,19,-5,5,7,
8,-13,25,46,-25,14,-5,10,-1,-1,-17,-16,13,-59,-2,1,-67,-15,-1,-17,8,20,-20,16,17,25,11,7,-12,11,8,-2,
34,-29,17,2,16,-12,-22,-2,-10,2,-24,0,-31,-8,4,30,15,-6,2,25,-8,8,-12,-11,7,-43,5,20,-1,-9,-12,-3,
34,22,24,25,-24,9,10,-16,26,1,-12,-22,22,26,25,16,20,-1,-3,12,-2,21,38,-4,12,13,13,8,9,13,-21,-21,
-31,-40,-22,-36,-34,-53,-26,-10,36,18,-14,-35,-21,-21,-13,15,-21,10,24,54,-54,-24,-42,34,26,-12,8,-104,-34,31,-23,-18,
-6,-26,-64,14,21,31,-8,50,2,18,22,-13,-11,-47,68,-14,-77,19,82,-1,-12,-47,67,37,20,42,25,11,-15,0,-69,-30,
14,1,43,-15,-29,20,20,24,61,41,34,31,-30,50,40,37,30,-19,-19,13,-9,60,8,-68,-42,-35,29,-10,86,-29,-17,6,
-34,-1,-8,23,-4,36,-18,27,-27,10,31,45,6,18,-50,-29,26,6,-53,-24,8,-51,6,67,-29,8,-7,-29,-40,-40,30,-84,
19,95,24,40,65,26,80,27,14,18,11,-34,32,12,40,21,-8,-98,114,-17,44,12,8,60,65,20,-20,-15,-62,-76,-8,-9,
-17,-48,-41,15,18,21,21,-58,-73,-27,-6,26,12,28,-2,-40,59,-8,30,21,31,22,-15,-49,-99,-36,61,-44,10,16,13,-6,
22,-54,-70,-8,-11,-82,1,14,0,-7,-104,24,-14,4,-75,40,24,-61,-25,18,-68,-34,-13,-76,120,7,-19,-58,11,13,-15,-16,
40,-35,-66,-32,-8,-51,-37,24,-13,28,-20,-7,-17,-44,-62,73,-27,28,16,-2,-46,-23,49,-65,12,10,-56,-10,82,50,16,0,
-12,-24,-36,21,12,23,-14,35,7,16,17,-50,5,-14,-28,-35,-43,-28,23,25,22,0,-14,-22,51,-15,-22,-31,-7,-16,-41,9,
29,-1,-29,31,-18,42,-7,59,12,-9,-17,-5,32,-25,-3,-16,34,-17,-8,33,0,-4,-8,23,-14,57,42,-24,-42,25,18,-35,
3,15,26,-3,26,-16,17,0,41,9,-2,45,11,-12,21,39,46,-53,-17,-24,-8,8,-8,-38,-2,8,18,-27,63,-39,-19,-4,
15,27,0,30,-18,39,18,1,-25,-1,-14,-14,16,29,-68,25,-21,4,-26,-11,16,24,13,8,8,-13,-4,-17,-13,14,16,-2,
-14,18,10,-15,-28,-5,19,-10,14,-36,-24,1,7,0,19,53,8,14,6,-17,-8,35,2,46,3,23,-12,-4,18,-11,49,-13,
-46,15,13,-27,-24,35,46,-2,-8,-11,2,-87,-44,-52,-30,17,-79,-11,-24,-27,15,-3,10,16,0,11,2,42,51,37,-32,42,
12,-8,-32,-41,-14,28,-5,29,27,15,-44,2,-15,7,-12,6,9,22,50,20,-26,12,1,34,13,-42,-16,49,-9,30,27,-11,
-14,-8,43,-61,-10,-13,-16,21,22,51,29,22,-18,-13,-9,-30,9,-41,13,10,-26,-24,-6,46,-25,24,-19,42,17,-8,30,36,
-7,-5,-3,-22,-33,11,-31,-21,16,-65,-79,22,18,8,12,36,17,-11,-30,6,-48,41,-70,23,0,62,4,-17,16,38,10,-6,
-22,45,34,-19,-14,-5,14,46,18,3,-8,-17,-15,-43,20,39,-37,8,74,-52,-17,-32,-3,-3,19,30,-33,61,-21,13,-40,-24,
51,14,7,2,18,26,13,6,31,26,23,-14,11,21,40,5,-22,-7,7,1,-9,42,5,23,-20,-61,-9,42,-19,-23,28,-13,
-17,-30,3,-38,-17,3,19,-1,-1,25,12,-4,10,32,-4,-69,39,-59,-56,46,-15,10,7,11,18,19,-32,27,-25,-22,39,-33,
-6,14,-19,-14,24,26,-21,2,25,-10,50,-5,0,34,9,10,-21,1,5,35,26,-12,4,0,2,13,9,-10,6,33,-23,3,
25,16,-5,21,-8,-4,-9,17,16,-2,-10,14,26,-44,9,4,-20,0,21,29,18,-10,27,-26,47,-15,-1,-21,1,20,10,6,
-4,-9,28,-18,-15,19,4,-3,3,30,-12,-14,35,13,9,13,-17,-14,-3,-8,9,-21,12,13,-8,6,-14,3,4,-26,-63,10,
-3,12,0,7,0,20,15,15,-19,-7,26,44,31,16,-11,-5,9,-18,15,-3,18,3,-31,43,28,-18,34,-11,12,8,-2,7,
0,-9,7,-12,-7,50,-4,-4,-1,-8,49,1,-68,-28,-17,13,49,-24,-61,-27,-22,10,6,-10,50,-7,15,15,-8,29,6,-7,
-21,20,-6,-22,33,11,1,4,-4,5,6,-11,4,54,-4,-2,64,-31,-25,-3,-19,18,-23,21,4,-52,11,8,-5,-5,31,12,
23,11,-18,-24,2,-16,3,23,17,16,-6,2,-26,13,-7,-44,-25,48,-2,2,-19,-3,-27,-18,-11,-9,-59,35,-8,-32,-47,10,
29,-8,-21,-10,-20,-15,-26,17,-12,-22,5,9,24,24,-3,23,-21,-42,17,-21,10,32,-21,20,14,26,-18,27,17,-13,0,15,
52,-50,-47,9,43,0,23,-3,3,14,20,-54,39,43,10,-46,-11,-11,-4,-37,45,23,20,-17,14,26,30,44,-66,38,18,24,
-5,6,2,-22,-30,64,1,27,-35,1,16,-3,-2,0,35,-82,1,-3,-37,25,25,-16,-4,5,-29,-18,-15,6,-3,-55,-8,10,
34,-3,-26,12,67,-12,-6,21,-10,-35,-45,53,16,17,-17,19,-29,23,44,-58,-15,-15,0,-3,40,17,-15,9,34,25,-3,32,
68,-24,-39,34,-20,20,0,-6,13,8,-2,-56,3,-44,42,-3,20,25,28,-63,32,-5,-14,-47,33,-79,1,-23,30,-24,49,-1,
44,5,3,22,33,-67,0,16,-20,46,43,-69,4,57,31,-34,-30,45,-37,48,32,-17,-12,20,-59,0,-10,-6,12,-16,23,64,
12,-28,-41,10,13,-14,40,-14,35,25,-6,-5,6,-4,34,-1,-28,-18,-17,-48,20,35,27,-1,-65,17,-28,-10,-39,-77,-42,-17,
-1,0,1,16,39,-5,-51,-57,-15,-35,19,-43,10,30,13,-40,-3,-28,-6,-2,52,-7,6,66,-16,73,-10,10,15,-36,23,-25,
-10,19,-10,47,4,22,1,-19,-21,12,-22,-57,-30,24,19,-62,28,95,-51,-21,-6,-4,-2,22,-64,-20,-27,-29,4,-38,-27,12,
0,-18,-16,-14,5,0,2,-67,18,5,31,-40,30,30,-23,0,-19,-27,-2,10,6,-17,2,16,16,15,21,-2,-31,42,-11,14,
28,9,-12,-7,-42,30,1,30,5,23,0,-42,-2,-37,20,-50,-12,-38,23,49,15,29,6,12,19,20,-7,1,-55,-7,-6,36,
-49,35,-3,-13,35,-11,7,-49,-24,-14,-19,17,-28,3,8,-12,21,-15,35,-63,15,15,-17,-15,10,-5,-4,-19,14,43,-43,-1,
-22,25,7,-1,-42,16,7,-13,-1,23,15,-18,10,-8,-29,11,12,20,8,-16,27,0,8,-8,10,-62,-6,-8,12,-73,4,36,
12,-7,27,-22,-27,-46,-1,3,33,-43,39,-9,1,-1,-3,67,20,44,18,18,-46,-14,14,10,-28,-39,14,37,44,-24,7,17,
24,-9,7,36,14,-11,-6,-1,-31,25,-8,2,-2,41,-33,32,5,26,20,-11,-7,38,16,-24,23,33,-33,38,-41,-34,-11,22,
18,-11,12,26,-43,55,-50,25,-12,-2,29,-73,-94,9,-1,37,11,31,-7,47,24,-36,-3,41,1,29,-14,21,17,-13,21,6,
-43,14,16,38,-11,-36,-7,-40,19,-34,5,13,-17,-16,42,-12,-5,-25,-41,14,-26,-26,11,-10,-38,-19,-43,35,-23,-13,-13,-2,
-16,20,35,9,20,3,-8,-85,10,-18,-26,-17,21,-15,-6,27,-8,-51,-14,-41,0,10,-39,-3,-3,1,-45,-28,15,36,3,5,
-6,-13,17,23,5,9,-12,14,13,-11,6,-54,-10,-22,-10,1,-34,-37,26,6,-3,5,-8,15,2,7,-15,5,22,11,-3,-39,
-1,-26,29,-63,-29,25,16,8,13,5,-23,31,8,9,-4,32,19,-31,-33,9,-8,24,-22,13,-1,-36,28,6,-21,3,-1,-27,
-2,14,5,-15,-13,-34,38,13,-24,-15,-2,14,28,30,-5,0,0,-13,15,4,-53,24,-13,-4,-18,14,15,29,-19,-28,-12,-28,
-7,18,-2,-6,-22,14,-5,15,18,25,4,8,-6,-10,2,-7,-6,8,-4,35,22,15,-22,1,21,10,-58,-42,30,-36,-4,-23,
-8,26,22,13,-4,-49,-23,14,14,6,-20,30,15,38,2,17,-17,13,-24,-70,-17,2,-29,15,-1,6,-10,14,-28,-5,-15,-12,
-4,-8,15,14,-14,20,14,6,13,-29,-35,9,27,-4,0,5,-6,-30,-7,18,-7,-12,-9,6,14,0,21,21,25,2,-24,-21,
-12,-28,13,20,-6,43,5,6,-32,14,-16,25,5,22,-11,4,22,-12,21,32,-4,19,-2,4,3,-32,18,22,13,-10,-18,10,
22,63,30,0,4,-50,24,-20,-9,4,-50,-13,34,38,-41,18,-28,26,30,34,-11,-42,44,16,-16,-11,-23,31,32,67,-25,11,
32,-76,7,3,41,-62,46,-34,-83,50,2,-4,-22,-12,-12,-2,-46,-5,-7,-3,-15,45,-55,15,3,-41,-37,47,42,-36,75,51,
-30,-24,3,7,-50,58,-54,-38,-27,29,-3,-68,-127,69,58,37,-53,-10,19,18,-44,-38,-18,-22,18,37,-32,-14,-22,7,-3,29,
-67,25,36,17,-14,4,-13,-46,20,34,-52,50,-4,-7,-50,42,3,37,1,32,-29,8,-31,-7,-35,68,95,31,-33,30,-69,-19,
13,49,11,15,11,-3,-2,-3,-17,3,74,-20,10,35,-52,5,-18,-10,1,35,-3,-71,23,-8,-48,-35,-9,14,54,54,-102,39,
64,29,26,63,-3,-44,22,-14,-75,15,-12,38,-35,29,-25,-29,27,3,16,-13,-28,36,-16,-24,20,-15,1,18,-32,-10,25,-36,
11,-7,15,28,23,4,-36,-89,-6,23,10,-26,36,11,54,37,-8,-27,6,-38,-97,-14,-4,-75,-19,13,-43,-11,29,-18,-91,-11,
-12,37,15,32,-8,28,-17,-36,17,-18,-58,-12,-18,-6,7,26,24,32,-6,-20,-6,51,-33,-25,-35,0,15,4,-50,4,-55,-10,
-41,0,-20,24,-20,31,7,-44,-12,-18,-5,-46,10,5,-18,18,-19,-15,-49,-1,15,-19,-13,-15,22,14,9,7,-15,33,16,60,
-25,18,-69,-46,-38,-2,16,29,-7,-8,10,-64,-6,-15,35,-12,-17,-21,30,21,-16,35,-5,46,2,17,-10,-1,-33,-1,34,13,
-15,21,-29,-3,26,-19,24,-62,-22,31,19,11,-41,45,-3,-37,-10,-5,26,-7,7,42,-8,-29,6,-40,15,55,-1,3,-24,34,
-29,15,22,-8,-16,-11,17,-7,20,30,-14,-9,4,17,-77,28,46,-22,-8,3,10,33,6,-33,31,3,-6,-12,12,-27,-6,26,
10,25,19,0,42,-18,57,-37,-5,17,13,-3,50,-16,-20,-3,-12,19,-2,-31,34,-5,-20,31,13,6,-10,31,20,9,20,-44,
-27,13,4,15,-48,11,23,18,52,-2,-18,-45,-16,-40,7,35,-26,2,-26,2,7,60,18,-22,12,24,24,-10,-4,-34,25,15,
-66,9,-36,10,-2,-51,-13,15,-4,-5,-58,-17,36,-12,-12,-19,-42,-6,23,-10,41,18,-6,30,26,14,24,-11,3,47,10,-57,
2,13,-21,-29,25,-9,26,29,-27,12,49,-16,17,34,0,64,3,20,41,22,-6,10,-7,9,-10,-21,46,29,37,-23,-7,40,
5,-43,-16,0,23,1,-32,24,-22,-17,-2,-9,-17,13,18,-56,-6,2,6,0,6,21,-26,-17,-11,-42,-23,29,-13,19,-23,-3,
18,-10,-9,-4,4,-13,-35,27,10,-10,-5,5,35,-11,-52,-9,33,-82,-41,-36,-15,-46,1,-1,-14,10,-1,41,9,-7,-56,-17,
57,13,-4,-7,7,-19,-17,-20,25,-4,31,30,32,-30,-3,22,11,14,-25,-14,30,38,-10,29,-23,22,22,-12,-20,-15,-24,9,
20,5,-21,37,-7,15,-4,-1,34,-9,-30,-48,31,29,-1,-77,-4,-24,-35,-44,27,-1,-1,-8,5,-38,6,-40,1,21,-14,23,
37,-35,-13,-62,-69,-27,-26,33,11,-48,45,1,73,-80,62,10,-23,40,28,65,-1,38,-61,79,-38,-36,21,36,-79,-20,-13,-67,
18,-53,2,-14,73,21,-26,-58,-40,-3,7,69,38,84,-97,12,49,-32,-4,14,27,-7,44,-31,-107,-7,-15,32,-28,-9,-106,-45,
98,81,-16,4,-95,-57,-5,26,66,19,12,35,-33,-79,45,37,14,15,-30,52,-5,-13,-20,-28,30,56,23,-53,8,11,38,-76,
-28,13,-8,18,-25,-58,-79,43,13,24,62,3,14,17,35,-36,-66,-27,-46,-50,16,-114,58,35,-37,-3,-51,-39,-16,23,58,-18,
-29,15,40,2,-26,-36,-23,-14,35,6,-100,24,37,-31,-42,-20,-37,-8,3,-38,-12,0,-44,-14,1,20,-56,-33,1,-26,-2,-53,
-16,-13,26,27,-10,35,28,28,29,25,5,0,-1,17,7,10,-35,2,12,-25,8,-18,-42,-13,43,36,-24,28,6,0,9,-10,
10,19,16,-5,-13,26,-4,9,21,-3,-5,21,-28,5,12,50,22,-6,18,28,17,15,-19,22,-26,6,-15,32,35,18,12,4,
-27,-46,32,17,-28,2,3,42,-8,28,-11,-18,-9,-10,2,11,38,-28,-6,19,-6,-4,-6,-34,32,-8,-16,24,-32,-16,14,-34,
3,12,-31,16,-9,17,-25,19,16,24,-7,24,38,0,-2,-7,-15,-18,-18,-11,-14,15,-39,2,46,32,-25,-58,17,-20,-3,-42,
-10,13,34,-15,-21,28,1,19,29,20,5,1,12,19,-38,12,-54,-10,3,-12,25,-6,-7,26,62,6,1,5,-26,-9,-12,-43,
-10,7,9,-4,-8,13,13,26,34,8,-37,28,36,10,6,-4,0,-11,-11,3,36,36,-14,34,-21,25,-5,13,-19,-10,-18,-9,
33,0,-22,3,34,19,43,18,12,27,24,11,15,-1,-63,6,-5,6,11,-11,28,30,-12,19,11,28,36,36,-25,-21,5,-32,
-39,9,-9,26,14,5,-9,-6,7,8,-14,3,30,20,29,-12,-37,12,-18,17,5,-1,-35,21,-7,7,6,-38,13,22,10,3,
21,-6,-14,9,-18,28,-10,-11,39,15,25,-3,16,4,19,37,-36,-5,-5,-35,17,-9,-18,16,2,22,-9,14,14,28,25,-13,
2,28,45,-24,20,33,35,-35,20,4,-3,26,-14,33,7,-23,-14,-13,-5,15,37,22,-6,12,4,19,-9,8,-25,-56,-4,23,
-30,28,20,-12,-20,27,26,-16,24,26,-38,-17,21,39,-17,-23,36,25,0,18,7,31,28,-24,9,24,22,-17,17,-6,-4,-27,
-14,33,53,-27,5,-62,35,-1,84,-31,67,25,-1,13,-16,43,-42,41,32,-17,12,-26,-15,-5,-82,-128,27,0,-15,-5,-26,16,
15,-45,25,44,46,-28,54,-10,-59,20,-18,49,-45,88,-43,-34,-17,33,-69,93,23,1,44,-23,9,30,-66,14,74,-26,-33,-10,
50,26,28,10,-51,-19,-77,-26,78,-14,-57,-16,-10,-59,25,80,-5,3,-27,28,-49,-15,-1,-56,-43,54,-23,10,-37,-56,24,-43,
16,32,-21,1,7,-59,10,49,18,-4,50,51,26,3,16,-83,-19,22,-52,-68,-7,18,4,52,-83,-10,-14,18,-29,4,-2,-66,
19,10,-10,3,15,13,15,-3,1,3,25,-13,40,20,-38,9,-6,8,-13,-47,30,-28,28,6,11,-4,-7,12,16,47,1,-8,
12,42,15,2,-71,36,18,5,70,-10,5,-29,-7,-34,-9,17,-33,-8,6,5,0,27,-18,7,19,19,15,4,-52,-17,34,-3,
-64,-51,-18,-7,8,5,-17,27,20,-17,-36,-4,-3,-5,7,-5,16,8,57,-17,39,-2,15,16,22,-2,32,19,-7,-3,39,22,
-25,29,-6,-19,-17,-7,49,0,-9,24,29,6,-11,1,-42,38,13,-10,37,3,-12,22,-11,-15,1,-20,1,14,-17,-11,-18,-3,
-8,35,-26,-2,31,-9,-11,-56,33,9,71,36,-40,11,11,-60,13,6,-1,0,11,-4,13,-9,5,-78,-23,-8,-4,45,-62,53,
55,24,-7,38,-29,-20,-8,-6,24,-28,-10,7,41,-35,-19,-38,-42,-17,-49,22,32,16,-20,8,17,2,-11,-27,52,12,27,-8,
-3,0,26,9,-59,21,-28,-21,11,-64,-24,-15,7,-34,34,15,43,-60,-33,-1,-28,10,7,-39,-45,38,22,-18,-53,-61,-73,-11,
53,33,9,45,-25,-28,28,0,31,3,-16,-12,25,7,-2,-29,-26,26,-21,-69,43,-6,26,20,-69,-28,-6,-44,-20,-54,-30,-59,
44,6,-47,68,27,-42,38,-5,-9,37,3,-52,-7,34,-67,50,-37,-20,16,9,40,-25,-28,-32,-17,-37,-44,6,-38,13,9,57,
16,4,22,-18,26,-8,39,14,-33,-12,13,-1,-93,45,18,-62,-9,16,-3,-41,4,13,-51,-23,-34,0,32,65,32,-66,-27,-44,
78,-13,-11,-21,74,-12,-38,-50,25,-20,29,37,41,47,-28,34,-18,-36,36,-88,-31,8,6,-16,-15,12,-22,71,7,21,38,13,
-32,-35,-50,20,-32,26,13,38,53,48,-17,-20,-75,-42,3,18,85,18,21,-56,8,57,-33,-16,-16,-84,4,0,-13,-10,-10,-34,
-16,21,-16,-26,-33,10,25,-6,-16,0,-7,19,11,-7,4,-5,67,-16,1,-50,16,11,15,2,4,0,13,13,-15,38,17,-7,
-44,0,3,-28,5,30,-4,17,32,-19,-16,-39,-37,28,6,-5,57,14,-4,-12,-4,3,-24,-4,17,-35,-4,3,-10,-2,-6,23,
30,-4,-39,-3,-24,-42,34,25,-5,1,-32,9,-23,36,-32,-72,-38,22,6,-1,20,-5,-2,3,22,-12,-24,5,-4,-13,30,20,
-18,-34,-17,-30,-11,-46,-22,20,28,-6,16,17,-9,-66,18,16,34,-24,22,2,-4,-31,-17,-15,17,44,-41,16,25,29,2,13,
-31,-10,20,-22,22,-57,-18,-43,33,-67,8,41,2,-8,11,-51,-5,20,23,30,3,-8,31,21,3,-109,-14,17,-26,4,-1,61,
56,-18,-30,13,-25,15,-22,20,-71,-39,-9,27,73,-23,-42,-2,-44,37,4,45,69,-44,-39,12,-22,-4,-33,10,18,20,-35,-32,
43,11,-16,-3,-13,48,-17,4,48,-30,12,-4,-9,-7,21,19,46,-21,-19,5,-46,45,-10,-66,0,8,27,0,-24,-62,-70,2,
34,9,42,3,-17,-23,7,28,64,2,32,9,39,-20,-8,-33,-7,12,-44,-34,51,2,29,-45,-9,-29,-20,-58,26,-5,-1,-24,
34,19,-7,-33,-28,-2,27,44,-46,0,-16,-30,32,3,62,59,24,9,-41,13,-14,77,-25,95,8,64,11,-10,-10,34,47,-21,
-17,-35,9,9,19,2,25,-52,-34,0,-10,4,39,23,14,17,18,-3,6,-9,-10,31,0,-48,-62,-35,10,0,-37,-3,-5,14,
17,14,-74,-1,-36,-30,38,52,36,9,-3,63,-33,12,45,-62,-22,39,14,-5,-26,23,-9,-28,50,-19,-16,-1,-12,35,25,-2,
-7,-33,22,-60,-17,-11,-39,6,-16,29,42,11,-15,-26,-15,45,-11,22,2,22,-48,-40,36,16,0,25,-37,11,13,31,30,-9,
29,-21,-6,-30,-26,38,-15,6,-29,8,7,-3,-52,-47,-65,-25,-6,37,-10,4,-37,-6,3,-24,-10,21,5,34,39,-9,28,-24,
-19,49,36,-3,25,2,-22,0,-15,24,-30,-7,-9,28,12,-2,27,-4,7,1,-64,-21,-1,2,21,-4,7,-27,-46,0,6,44,
-28,-45,11,35,49,-27,3,6,-34,-8,11,-36,35,4,18,-10,-14,30,6,-8,28,7,-16,34,5,9,4,-38,6,33,33,41,
-47,12,4,34,-1,30,-28,-50,-18,-65,-5,17,-8,16,18,1,20,-19,52,24,-24,7,-11,21,19,-14,46,7,18,-3,-37,57,
-9,20,-101,-27,-16,2,4,26,-2,21,30,33,22,-3,50,-10,10,6,-42,17,-16,11,-12,48,28,38,5,-13,-8,1,-5,5,
19,-49,-40,-21,5,50,9,-18,32,3,-6,5,-17,38,31,-4,31,16,0,-4,13,41,29,0,-36,13,30,-44,-9,28,15,-6,
27,7,-26,7,4,-28,26,6,22,13,-24,23,14,9,40,-50,13,28,-31,-9,22,16,2,-24,23,11,9,-31,8,-28,-19,-5,
-10,-17,21,9,12,0,-18,9,-17,-9,-2,-25,-13,32,-5,22,8,23,-10,1,20,3,6,49,44,37,7,-45,-6,-2,-3,-31,
37,-13,-40,-6,-7,-35,-11,-15,21,-58,45,14,-8,-9,63,1,-34,29,-21,26,27,1,-8,74,-36,-23,13,15,-36,-49,-21,14,
27,-33,-9,-9,22,-17,15,-46,2,-88,2,47,61,13,-31,26,-16,46,-41,38,63,-19,16,-32,-26,-19,-25,12,13,-20,-67,-31,
69,65,-5,7,-8,-53,-7,51,52,-96,-8,-6,-14,-79,18,-1,10,13,9,46,9,-24,-10,6,10,95,39,-30,-54,-1,16,-32,
53,25,1,18,-2,-58,-6,14,22,13,70,-20,9,-5,32,-50,-7,3,-35,-74,12,-58,63,24,-18,-58,16,-45,23,-16,24,-37,
42,16,13,-24,2,-51,-30,17,-8,16,-29,12,13,-8,45,-28,14,11,4,10,-27,44,13,24,19,45,8,-9,15,45,-18,-43,
0,-25,-37,-16,-25,-32,-18,-43,14,46,-32,-23,18,-16,48,18,-53,-77,40,-80,4,22,2,-20,-29,-27,3,-44,43,13,24,32,
22,-2,-57,-14,-19,25,-9,-3,-22,13,-15,23,-38,47,17,14,-5,16,1,16,24,-15,-18,12,-8,-13,0,-53,4,54,-7,11,
38,-10,26,-1,-26,16,-20,-45,23,-2,-12,-4,-24,-17,-2,-5,1,34,0,45,-32,-22,27,-2,14,42,-43,-33,-40,-9,-28,12,
6,6,-41,28,31,15,-3,-3,-28,23,16,-40,-96,41,30,-12,5,32,-48,37,18,-44,4,0,10,15,-12,-5,0,28,-19,40,
-7,15,-6,11,14,-43,-62,-8,-29,33,-8,13,42,29,-12,57,39,-37,2,-41,-18,21,22,-29,-14,2,-18,8,-41,-25,-6,-1,
-12,3,-7,19,57,-13,-30,-18,-8,6,32,-55,-11,34,26,-7,11,33,1,14,40,-8,-22,14,2,39,-16,-29,1,5,23,34,
-12,27,27,57,-11,25,5,-42,16,-63,14,13,-29,19,33,-2,11,66,45,22,12,48,36,-18,18,-6,10,23,-5,-1,-38,40,
-4,-44,-35,-4,-33,-15,-42,37,-19,-13,-44,8,-2,-66,18,-27,-13,39,-40,-5,8,43,-64,15,2,40,-45,12,-15,-34,-3,-49,
17,-24,12,-16,44,7,-52,20,31,4,-11,25,9,46,24,35,27,55,-26,-1,-77,-71,30,-7,10,32,26,-31,-49,26,-46,-31,
47,-6,26,34,16,-64,-4,-4,40,0,-27,37,9,-64,25,-42,29,23,-19,8,36,12,10,17,23,53,54,-5,-9,6,56,7,
18,-23,-12,32,-4,11,0,35,-117,-41,34,-30,26,36,-4,-6,-11,-13,-5,9,10,14,2,-11,28,27,8,-24,22,17,0,-9,
14,-38,34,-26,17,15,-13,29,-62,-6,-12,0,-65,-5,-18,-27,21,18,20,-28,-2,3,18,-6,-29,-6,10,30,10,14,-56,-13,
42,53,55,7,30,-52,-52,-2,-72,42,3,37,-37,-42,-51,-3,-20,40,-12,11,-14,-39,19,22,35,-10,-29,13,-9,-11,17,33,
-3,-42,40,49,-1,81,7,41,-31,-9,36,-39,8,-3,0,39,-2,-1,-47,21,-12,-1,-11,-1,-6,39,-48,5,2,-24,1,1,
-15,16,20,28,-11,30,-31,-40,-1,-16,-21,-30,35,-16,60,-24,-28,19,5,24,36,38,-18,-17,20,12,-9,23,-42,40,-20,15,
-32,-12,-17,-21,-30,3,-27,6,16,-2,-57,30,9,-25,10,20,26,-8,-20,0,-49,21,34,31,20,33,-9,4,66,-8,-6,-56,
-3,10,-17,-16,-19,17,14,16,-9,-16,-29,-29,0,7,-5,44,-6,-13,23,-38,3,11,-61,26,23,17,9,-29,16,2,-19,9,
-3,34,11,5,-53,34,-5,29,3,22,-28,-3,9,-13,7,-30,38,45,-32,15,22,13,-3,37,-1,-14,-1,5,0,-2,-12,13,
11,6,27,-38,3,-28,6,2,-39,-22,19,32,-1,16,-24,14,-16,-38,9,29,-3,-30,-20,-42,6,19,1,22,-7,-5,6,-7,
2,-34,-54,14,-15,15,-24,8,-30,-6,13,-48,-93,28,-58,8,56,53,-45,39,-20,-7,39,-28,-1,29,60,10,-35,35,-24,8,
11,4,6,-24,23,-39,-14,-34,-37,38,3,-20,11,-6,16,5,60,11,17,-47,-40,-7,-28,-1,-26,-32,1,43,-76,8,-25,55,
-22,24,-26,48,44,78,-1,-9,-24,27,24,-23,26,68,22,-24,-32,54,-8,-35,-8,1,-2,-15,23,32,-35,-29,4,34,23,57,
-51,-28,-36,1,-1,31,-25,-71,-13,-62,-51,-17,-23,-61,39,8,35,26,15,4,-7,-7,-37,-43,37,8,-18,-8,-27,22,-36,59,
8,21,32,-48,-15,-36,-4,-20,50,-19,-61,28,14,32,-9,35,-39,33,32,3,-39,-27,13,38,16,0,-18,-41,51,22,-54,-36,
5,-65,29,39,16,-17,24,-27,2,16,3,-9,20,-39,-1,40,-19,63,42,0,11,-8,-20,23,26,17,-12,41,-1,11,-1,13,
16,26,29,21,-44,38,-19,18,46,5,-66,-33,-68,-15,63,5,34,-31,11,51,-24,9,-4,12,-5,-1,-13,-1,-27,2,31,-32,
-20,32,44,-13,-32,-32,34,-16,-15,3,33,-4,18,-10,-60,-17,56,-9,-68,45,-14,4,14,-16,-42,25,-56,38,-46,2,-19,-24,
69,-15,-13,5,12,-74,16,25,-6,69,-48,48,60,-12,5,0,-48,-8,-8,30,4,41,11,6,-19,21,-67,-42,9,-11,-20,24,
-28,35,-26,-1,3,-8,29,50,31,1,-26,-17,-67,-45,44,-46,-22,-14,20,-43,-40,1,-17,-3,-11,37,13,29,13,-30,-41,0,
-12,-17,-21,-34,76,-6,0,-43,7,-10,45,33,50,29,-32,-1,-23,-20,32,-42,23,-49,-12,26,-28,1,37,43,57,17,6,1,
-4,-29,-17,-12,0,29,27,16,-46,24,-38,1,-55,-1,-51,-15,34,23,2,2,0,10,-27,-7,-1,-21,35,20,-4,-25,-26,-23,
18,27,-34,34,61,-81,24,-23,33,33,-68,-29,94,47,19,49,-61,-47,42,71,37,25,-52,21,26,2,4,-80,-36,45,44,84,
-30,-49,-15,38,-15,44,74,0,-3,8,-28,-20,-63,-18,95,-83,-25,-9,32,-46,-3,41,-3,-50,-28,27,42,23,-49,-69,-103,-54,
66,-14,-46,-44,49,16,-35,-18,35,-31,38,73,12,85,-32,32,-53,17,34,-66,-17,-32,-8,-37,6,-8,11,29,81,-17,6,-23,
-7,-39,-68,-29,-51,-8,47,17,25,58,19,-46,-51,-62,-44,58,64,41,-37,-100,-34,3,-2,13,-23,-16,-15,-17,34,-16,-6,-71,
60,-7,-23,54,41,20,31,-30,1,47,1,-35,27,95,-45,37,-34,-15,10,14,1,-13,16,-42,-15,18,28,26,-83,33,1,81,
31,44,11,-4,-20,-24,-44,13,-47,-18,0,-3,-75,80,56,-65,-11,-39,-28,0,39,19,9,-6,-8,-37,-37,43,-1,-111,19,-16,
10,9,-16,-12,69,10,-64,-51,-25,-81,32,15,34,39,18,15,-73,-36,30,-71,-37,-22,-4,-4,-24,60,-14,23,28,45,20,-14,
21,34,-36,22,-21,59,12,-11,67,75,-61,-73,-64,-85,24,15,31,101,53,-18,15,64,-3,1,-46,-106,-22,14,1,-7,-37,38,
44,-4,-8,23,13,19,53,-24,24,6,-35,-4,-1,48,-23,22,25,-52,13,-34,35,25,-23,-31,12,29,0,28,-57,15,45,11,
-83,38,20,7,-27,30,-23,14,-4,-14,-8,-42,-38,-26,5,-31,19,-54,22,-36,45,3,-19,-13,-12,-13,16,10,25,-23,-23,-28,
-1,0,-28,-56,69,-3,21,-3,10,-1,-2,30,50,11,-63,50,-27,-24,44,-53,5,0,4,-12,11,-37,-6,38,28,29,18,-3,
29,-39,-57,-32,-1,17,30,4,49,36,14,-3,5,-39,35,19,31,-3,51,-19,-24,26,-21,-77,20,-8,37,22,36,-3,14,-19,
4,3,-14,9,37,-44,-17,13,8,-53,37,15,44,-48,38,-17,-2,56,48,-34,27,-1,44,1,-23,-40,-13,18,-34,-72,-26,15,
64,-28,27,25,40,1,7,-14,-57,-8,-22,47,31,9,-46,-13,-12,78,-64,52,-1,-8,43,-43,-113,5,-12,-13,-12,22,-16,-38,
47,-2,0,32,-22,11,-22,1,32,-90,35,6,-58,-40,26,-6,33,-12,-31,29,36,-29,-15,-13,54,77,6,-40,7,33,65,-13,
24,19,24,24,-36,-32,-18,25,13,-5,32,-39,-10,1,21,-3,-64,-31,-24,-54,66,-50,67,9,-6,-18,-13,-29,33,37,25,-19,
29,21,-22,10,-6,-1,46,28,-42,27,15,-3,-13,12,17,42,-1,5,34,-7,-12,13,7,14,-24,32,80,29,3,-5,61,6,
-31,28,33,-9,5,-23,1,-33,4,19,-25,-18,19,-5,-16,-30,37,12,6,-16,-2,16,-8,-51,-25,-34,14,-13,41,-8,-10,26,
-38,0,-59,28,48,-25,-3,26,-23,10,-40,33,9,4,-27,-52,-39,1,1,-17,25,-44,-14,25,40,-6,-6,-38,4,48,-12,10,
-40,-17,-30,-30,7,33,-27,14,-16,5,-17,14,-50,-50,40,16,-25,43,43,45,-45,-14,-22,3,20,8,8,23,40,5,-6,36,
-26,6,21,-24,0,-27,19,-3,-15,19,-8,-18,0,-4,-31,48,-36,21,-14,35,7,-51,50,-8,-31,-6,25,46,67,-11,17,11,
20,30,18,-10,-22,-71,5,-30,46,49,-9,-6,16,-34,16,55,-40,58,-12,5,-1,60,-47,-36,4,48,-18,37,-5,-54,31,56,
-63,-46,-15,73,13,4,-54,-22,-34,-1,2,-50,-21,9,4,-44,-37,32,20,31,-17,-56,-6,31,31,34,10,9,-24,5,9,11,
-45,29,25,10,-7,-13,-19,-41,27,-37,-24,-32,-49,-28,40,39,-26,-4,29,21,-13,-2,-9,-23,-32,6,-13,-2,-1,8,-75,4,
20,34,5,5,47,31,15,14,18,15,45,-30,32,-33,56,38,10,-27,42,9,-7,29,8,44,59,31,0,-17,-48,-51,17,17,
10,-16,-47,-1,-33,43,-14,-10,-14,-33,-8,-4,7,-56,16,-10,-44,-18,23,32,22,12,-2,-2,-13,7,85,-56,-8,-14,-3,11,
-5,-17,-22,-3,-2,-24,23,-12,7,31,55,47,5,33,-6,34,40,-28,-8,23,-2,23,-16,-3,69,-27,34,-46,18,33,4,-36,
20,-28,-37,-14,-5,-2,-16,21,4,20,-23,-35,12,17,-52,17,-35,-3,0,10,-2,-54,53,31,11,13,-16,-12,49,11,24,-4,
18,3,2,16,-21,-3,-7,-13,3,6,-9,1,-17,-20,11,-13,2,12,-8,-6,-5,-19,-12,-9,5,-11,-16,-13,19,-8,9,-6,
8,24,3,9,-10,-7,-14,6,4,6,1,14,-18,12,8,-6,-10,6,11,-9,14,12,2,-17,11,-18,-16,19,3,-15,-5,21,
17,15,-16,2,0,21,-16,16,-13,-3,-7,-16,-8,-2,-6,9,11,16,-5,19,-8,12,6,12,15,8,-9,0,17,-14,-8,-12,
14,-13,-20,-12,13,-12,13,-11,1,-13,3,15,-17,-4,3,11,-12,-14,-17,-18,-10,8,18,15,-15,6,0,8,-15,-16,19,2,
-14,-15,28,-54,-29,5,-91,82,13,-66,62,49,-32,-40,57,-32,25,33,29,61,-1,70,-36,21,-18,35,35,5,22,-40,-22,-51,
-33,-20,0,-22,68,-3,1,-20,-28,-44,-2,66,96,51,-52,20,43,-40,-35,47,-1,-52,37,-19,-23,6,-14,4,31,7,-66,-9,
56,44,12,5,-73,-27,24,65,30,-16,-37,13,-13,-105,15,54,35,-5,-42,48,-6,-28,-20,4,8,34,26,-56,1,-13,-12,-42,
38,4,4,-2,-13,-47,-22,18,-52,24,50,-31,40,37,25,-95,-52,-56,-64,-37,-27,-34,27,12,-14,-11,-30,-45,-1,71,37,-61,
4,-6,12,-5,-14,30,-10,-32,-30,-43,-18,28,8,-37,-8,0,36,12,-20,16,28,19,44,-32,3,18,-1,34,-5,-5,11,3,
-7,-9,-6,-13,8,17,28,-12,-11,-19,-20,-7,-15,-30,37,-12,-10,36,17,5,-20,-12,-35,27,-9,-18,8,11,-53,0,4,27,
32,-41,9,-1,-12,20,9,-5,-9,16,-8,-4,-4,-2,-1,-4,-13,16,22,11,-21,14,-15,17,39,11,8,28,14,38,-2,1,
33,-44,21,-28,0,0,-2,10,30,42,17,-18,24,-6,39,6,21,-1,26,-20,21,-5,13,-42,29,21,12,-28,12,-7,3,33,
-20,8,30,-25,-14,36,21,12,-38,15,-26,18,-18,1,20,-30,-6,-39,-4,9,-31,-32,-20,-33,-2,-5,34,-27,4,2,-35,18,
9,40,31,12,-35,1,-8,40,12,55,-3,6,-53,5,6,-17,5,-6,23,-10,-41,-4,17,-3,42,21,18,22,-19,32,26,25,
14,-9,1,-10,27,-22,13,-38,-32,56,5,22,14,12,25,-4,28,-47,20,-27,-2,22,2,16,6,-17,33,-4,30,-19,-18,38,
-35,31,11,-9,-17,65,18,-9,-32,-35,-36,38,1,20,-17,-27,19,-23,1,20,17,32,-16,-13,37,32,37,31,-35,0,1,39,
-20,7,30,-9,-46,24,-50,27,4,-18,-24,9,-28,-62,-7,-17,27,23,19,-1,-45,3,9,-4,-8,28,-11,-27,39,-24,-8,-45,
0,33,3,8,23,-29,-51,27,-13,1,-1,3,20,13,-6,35,5,-18,10,16,-24,-3,9,12,46,-16,9,15,-59,15,13,21,
-8,-7,10,-3,-56,-36,23,5,0,39,-5,-19,13,-7,-12,-27,-22,3,-27,30,5,-12,6,24,4,-26,20,-11,-27,4,3,25,
-8,18,22,8,-12,11,12,10,-42,-18,10,38,4,36,-1,1,0,-12,24,46,17,33,-15,8,-9,29,27,4,9,31,-14,-4,
-38,5,-4,-13,-27,22,-5,-7,13,19,-53,23,15,-6,15,-35,18,-4,25,41,-17,8,-37,-26,5,-12,-14,-55,-47,-28,-31,-38,
-7,-31,-18,33,2,25,-33,6,19,-12,-4,19,5,6,9,2,10,33,16,-3,-43,-23,7,-7,-34,14,32,-21,-20,56,9,-28,
50,42,-31,-3,13,22,17,-15,32,25,-22,31,20,6,45,-19,53,-8,-44,-26,18,2,-20,-33,19,-1,-7,16,17,-10,-14,6,
-6,-26,45,-14,2,31,-38,41,-29,1,36,25,-13,38,-12,-15,-7,12,-28,-3,-20,-8,5,49,28,15,15,3,4,23,5,-15,
-21,51,14,-43,11,11,-42,28,-3,-14,6,20,-32,20,25,11,31,24,32,17,-59,5,-7,4,-9,-15,-31,-36,-8,60,-59,-26,
24,-39,-12,-4,40,-40,-40,-39,9,-13,6,34,29,-34,-18,46,27,31,23,-46,-12,15,-34,20,-4,-15,1,-3,15,45,-15,3,
41,11,22,50,-51,-7,17,15,30,46,-20,-1,-86,-18,21,11,32,-3,-15,67,-30,37,-15,-38,25,19,-8,-33,-28,-2,36,6,
-10,21,42,0,-28,-52,-34,-39,-24,-38,-2,7,20,64,-45,-24,-14,-47,-54,-1,-11,-61,15,-6,-28,33,-55,-22,-63,25,-17,-22,
13,108,37,32,40,48,62,-3,38,17,17,-11,64,6,42,17,19,-72,91,21,29,41,-7,49,57,-6,-35,-18,-45,-4,-1,-2,
15,-89,-29,39,55,19,43,-94,-128,-24,-11,57,15,44,-28,-55,103,22,0,-33,22,30,19,-82,-67,-88,42,-59,-60,4,13,-14,
24,9,-50,-9,-53,-18,15,23,-17,1,-18,36,-43,24,-46,42,9,13,-5,16,-114,-27,-4,-69,77,-5,-47,-68,3,-27,-23,-6,
25,-39,-59,-35,-10,-82,-68,13,0,48,22,-9,-10,-77,-53,118,-47,27,-23,-10,-64,-17,-27,1,29,45,-74,-23,22,54,10,-62,
-13,14,-29,-15,13,52,-27,24,-25,24,44,-29,-40,-25,20,-46,8,-21,-24,4,18,-10,35,-31,12,4,-5,-15,28,-43,1,-6,
9,22,15,-17,9,-9,10,-29,-4,34,4,25,31,21,-9,7,29,-21,2,-46,-11,5,-20,-6,20,-15,14,-41,17,26,15,21,
-17,-25,-7,6,2,-44,17,5,-17,11,-64,19,15,1,11,-8,28,11,27,-16,3,4,-9,25,14,-3,-3,8,30,-39,-4,-5,
0,-30,26,-12,0,4,-7,-7,4,-33,-27,-28,-7,37,11,-2,0,10,9,18,2,-6,22,-3,19,-3,32,2,36,38,-37,34,
-45,72,-64,14,37,32,73,-35,18,34,32,-45,3,51,57,24,29,-71,22,5,17,-7,68,21,68,9,65,33,-13,-3,37,57,
34,-36,-81,-36,-67,-10,33,-56,-15,-11,10,-13,23,-22,-11,-27,69,-63,15,-8,47,35,-29,-29,-32,-39,-10,-30,49,26,84,90,
-14,-27,-85,-14,17,-21,14,0,-45,11,-87,-36,-62,65,-76,18,-45,-4,3,-19,-51,-31,-17,-35,98,10,-60,-20,-22,-9,-51,17,
9,2,-70,-96,23,-65,21,-27,58,12,-30,17,-20,-20,-63,68,-34,36,29,6,-35,-27,29,-64,5,13,-8,-21,114,4,-41,55,
20,-45,12,-16,-26,-66,-33,-27,21,-55,12,60,57,-11,-34,-44,-31,70,-6,-73,26,-20,-71,-46,-50,0,-16,43,11,-77,10,5,
-7,-1,72,-30,35,-2,57,0,-14,-2,-13,-1,16,-24,-41,15,-26,44,-82,-63,29,-27,-26,-5,23,-1,-36,98,-16,-10,-108,-27,
-53,-34,48,18,7,48,-23,48,54,-17,-17,2,-31,-70,-5,8,26,12,43,-9,6,-18,5,22,-23,56,-14,85,-9,2,94,-9,
-8,0,3,22,-27,-15,9,15,31,34,32,-24,27,22,15,-72,2,-41,-48,-20,22,-22,-20,-7,-52,-32,-66,26,-16,7,-7,-108,
-6,3,57,3,5,-10,-13,-27,44,-58,-39,48,14,31,26,46,10,-50,51,-39,-51,48,-75,39,54,4,6,-52,11,19,-32,-8,
-55,-7,18,26,12,14,-10,14,18,-39,-18,-56,1,-32,-7,-5,13,-6,87,-60,19,14,-1,33,29,9,36,15,33,40,-22,-51,
17,-24,25,-60,-38,-14,-2,-6,48,57,18,41,-21,-9,-49,42,8,-53,-11,11,-47,10,12,-8,-45,-53,-3,13,7,-18,-35,-55,
4,-7,-29,-48,-1,-54,23,47,15,39,2,1,29,12,-16,-8,7,-14,-32,4,-81,25,-14,-41,-30,12,-33,39,-34,-14,22,-59,
26,7,-16,-14,-3,-29,-1,-1,13,8,-51,27,16,4,-37,10,-25,-15,-19,-42,-15,-49,-7,-2,-42,-7,-6,1,18,-5,0,-35,
-11,17,6,16,-27,-2,-5,4,31,2,8,27,-43,-12,30,4,-67,8,15,-29,-9,17,-8,6,37,29,-7,25,-53,-49,5,6,
-18,-20,28,-35,5,32,-25,9,-2,3,-3,-6,6,13,37,15,-15,-12,20,2,22,-11,8,40,11,-30,19,28,41,27,28,22,
-42,16,23,14,11,38,15,6,-41,-20,5,19,-6,34,-19,-8,20,22,32,11,-2,-9,-14,20,-28,-41,-10,5,17,-36,-40,14,
-3,-18,11,-10,-9,23,19,-7,2,-11,3,-17,-75,2,-26,5,57,-6,-65,-37,-12,-9,14,-16,7,-31,31,22,13,27,-4,15,
-10,21,8,-9,-11,-27,-3,-6,-27,14,3,-4,-67,3,-9,6,-14,-13,4,29,-20,13,19,46,0,-7,-10,2,-18,-18,18,33,
12,-15,12,20,-25,17,8,-24,-10,37,-4,-26,-36,19,9,-12,-29,48,27,-26,-9,9,3,-7,-7,-12,-41,3,-31,-11,-30,37,
-1,19,4,-15,-29,-23,-7,-20,51,-1,0,14,27,7,22,-4,11,-5,9,1,21,35,-17,6,2,10,-2,16,-1,42,10,19,
20,-66,-25,-16,-12,5,3,-20,-46,-23,17,-24,-15,-50,-23,-28,-14,5,-59,-35,19,-4,1,-5,-21,-34,-37,32,31,-39,32,-38,
28,7,4,-25,8,10,-24,69,20,-23,-15,-18,17,27,-40,16,0,50,-27,35,-41,-84,-8,51,-37,43,-5,-10,-34,20,-61,13,
-15,2,38,58,31,-72,0,15,-22,-44,17,20,36,-75,11,-53,16,-11,-21,8,48,28,1,39,0,40,62,-22,14,14,67,-1,
-3,-11,9,41,-21,6,21,33,-70,-62,19,-82,23,39,-12,-70,-20,-64,0,-10,57,5,25,-44,-8,-35,43,-15,-24,-14,16,-3,
53,-25,-68,20,13,-62,-14,-38,24,30,-10,-26,15,38,5,10,-47,39,4,79,-18,1,2,28,-11,48,69,-17,-27,49,-36,26,
11,-20,-16,-29,-33,76,11,56,2,-6,-13,-25,18,3,65,-22,-18,-37,70,-44,12,-7,-34,-8,-40,36,-8,46,-22,-2,-63,-25,
58,76,30,-39,19,22,-25,-32,26,-35,27,46,-34,48,34,24,18,-8,23,-20,-1,1,-10,-21,-43,30,-9,30,50,31,-57,4,
-28,13,6,20,-25,33,37,9,11,47,25,0,-61,-43,-22,15,50,34,-41,-31,24,-18,-3,10,1,-41,-13,-33,-19,-36,51,-40,
3,46,-16,-5,24,43,11,0,10,29,-7,-11,8,24,31,27,-21,-82,46,-35,-41,-9,27,-16,49,-37,2,29,-21,-15,-21,27,
-33,11,-49,37,-6,10,-25,17,-27,-20,-25,-7,-19,-13,-11,-59,31,-24,34,-15,0,-14,-18,7,-34,12,27,-15,-2,4,12,33,
4,-8,-26,5,24,-45,29,-56,-12,20,-5,25,2,35,-55,-5,17,-18,12,5,-54,26,12,-43,15,-37,12,-25,24,3,-59,28,
20,7,-74,-31,-2,-17,32,-25,51,4,-44,-12,3,26,-25,17,-11,41,24,-20,-9,33,5,-48,29,51,15,-31,-18,19,-4,26,
-38,-13,50,-30,-1,1,24,-34,28,-4,12,17,-13,-15,10,30,13,8,27,-27,-10,5,9,-25,44,14,28,-22,14,-10,-20,-12,
-18,29,34,-7,12,35,-14,13,-6,13,-21,-2,1,2,-20,10,-8,7,23,-7,19,0,-30,7,31,-9,12,17,-39,-9,-17,7,
25,42,12,-11,-4,33,10,28,8,-1,-17,10,21,17,-35,20,-36,11,-34,1,2,-2,-1,25,7,-29,-18,34,-17,3,-19,-4,
8,-15,-68,-6,2,34,1,11,19,13,15,-40,23,-7,28,23,16,11,13,-2,11,22,-12,-77,17,6,23,4,5,10,-5,21;

